#version: 0.2
e n
t i
ti t
en tit
entit y
entity ></w>
e d
i n
t h
en d
ed u
end ></w>
edu _
edu_ end></w>
< edu_end></w>
< /
< entity></w>
</ entity></w>
ti o
r e
a n
e r
tio n</w>
c o
a r
th e</w>
r o
o r
e d</w>
in g</w>
a t
l e
a l</w>
a l
d e
s t
s i
o f</w>
a tion</w>
a c
p ro
e s</w>
a s
e c
i c
i t
an d</w>
e r</w>
m o
i n</w>
a p
d i
o r</w>
s p
t o</w>
u r
m p
i s</w>
t r
m e
co n
m a
tio n
u l
o n</w>
s e
o n
t s</w>
en t</w>
i s
u s
u n
e s
l o
v e</w>
l y</w>
re s
e x
a n</w>
c e</w>
p o
f or
f or</w>
tit le
title ></w>
a b
st r
p er
q u
w e</w>
n e
mo de
i l
c h
i m
s u
a t</w>
g e</w>
co mp
o u
tion s</w>
n o
l e</w>
ti m
t er
b -</w>
g n
w or
en t
a ti
at e</w>
v e
th at</w>
r b-</w>
i z
for m
v i
ti c</w>
r a
c l
sp e
s y
it y</w>
b as
or i
h o
a s</w>
d at
th is</w>
s c
n g</w>
m s</w>
th o
p ar
e l
u t
v er
bas ed</w>
f ic
w h
g ori
w it
ur e</w>
me tho
r i
u c
a d
gori th
al gorith
wit h</w>
st e
ti c
ar e</w>
f i
s o
e n</w>
mode l</w>
</ title></w>
< title></w>
p res
f e
h i
s e</w>
pro b
m ul
a in
u re
ap pro
spe ec
i ma
speec h</w>
p l
en ts</w>
le ar
l in
t ec
ti ng</w>
a r</w>
re co
d s</w>
b y</w>
- l
g u
en ce</w>
- r
i c</w>
lear n
a tions</w>
an ce</w>
fe at
dat a</w>
si on</w>
a m
sy ste
gn i
mode l
ti ve</w>
o p
b e
cl as
ar i
th e
d o
b o
ac h</w>
o b
co r
en c
learn ing</w>
f ro
al ly</w>
algorith m</w>
e v
-r rb-</w>
ure s</w>
pro po
at ed</w>
iz ation</w>
c h</w>
f f
tion al</w>
tr an
prob le
t e
-l rb-</w>
fro m</w>
m ent</w>
wor k</w>
str uc
j ec
l i
g en
re c
metho d</w>
ou r</w>
d ing</w>
b e</w>
gni tion</w>
reco gnition</w>
m an
a g
s ho
t w
us ing</w>
p h
v ari
ati ve</w>
mul ti
ic h</w>
i b
sp ec
a ge</w>
p ap
g h
ab le</w>
pap er</w>
pro c
clas si
p r
c an</w>
m b
model s</w>
re l
es tim
wh ich</w>
ac e</w>
si s</w>
ic al</w>
l u
tran s
er s</w>
s ed</w>
appro ach</w>
un c
form ation</w>
t ed</w>
lo c
i t</w>
gen er
res ul
v o
ima ge</w>
k s</w>
per form
t o
tr ac
si gn
g ra
t er</w>
re g
c ur
t ure</w>
s t</w>
ab il
an al
fic ation</w>
syste m</w>
es s</w>
feat ures</w>
m in
m at
proble m</w>
g r
ent ation</w>
in formation</w>
ar y</w>
op tim
v is
u al</w>
t ex
anal y
de tec
f ra
a k
g e
ne t
m e</w>
lin e
an t</w>
de r</w>
t h</w>
is e</w>
re d</w>
d e</w>
ou s</w>
f in
p u
par a
tim e</w>
c i
in ter
tec h
m ar
l an
en ti
en si
ob jec
de p
le c
le s</w>
n i
ac h
comp ut
resul ts</w>
cl u
c e
metho ds</w>
s ing</w>
line ar</w>
t as
f unc
f fic
ve l</w>
su b
ur al</w>
g es</w>
r an
para me
al u
ex per
er i
a y
x im
tr ain
sho w</w>
tic al</w>
lan gu
h a
re pres
enc y</w>
a mp
ni qu
tech niqu
propo sed</w>
ap pl
on e</w>
n u
m or
m i
lo g
er ro
t ro
or s</w>
exper im
i mp
as e</w>
m ents</w>
es e</w>
re qu
f er
a ut
perform ance</w>
f o
comp le
w i
in e</w>
analy sis</w>
f ac
sy n
ffic i
s h
k ing</w>
si an</w>
in g
gr ap
feat ure</w>
mo n
v er</w>
aut o
dep end
algorith ms</w>
ad ap
ac cur
t or</w>
im pro
g h</w>
th er</w>
k no
su per
langu age</w>
di ff
n on
di sc
kno w
w e
sp ace</w>
is tic</w>
f il
sc ri
e ffici
no ise</w>
ti es</w>
ch an
spe ak
train ing</w>
estim ation</w>
di str
syste ms</w>
u m</w>
er e</w>
se g
distr ib
p or
at es</w>
fra me
for m</w>
detec tion</w>
us ed</w>
b u
it s</w>
m m
wor d</w>
at e
classi fication</w>
i d
ne l</w>
t y</w>
l ar
d uc
me tr
se ar
ne w</w>
abil ity</w>
s o</w>
tw o</w>
iz ed</w>
a u
ima ges</w>
p re
frame work</w>
s s</w>
l ab
c u
al ity</w>
con str
vi de
us e</w>
diff er
se t</w>
do ma
un d
al l</w>
a tional</w>
- based</w>
constr ain
s es</w>
erro r</w>
pr ed
proc es
un d</w>
i r
ati s
ter s</w>
con si
su ch</w>
re e</w>
st an
sear ch</w>
propo se</w>
tex t</w>
pred ic
en g
ou t
ac y</w>
st ate</w>
g i
se qu
lo w</w>
fer ence</w>
r edu
ff ec
v ec
auto ma
appl ic
s en
in t</w>
ce p
me as
er ing</w>
t ation</w>
ex p
or y</w>
tw e
vis ed</w>
ma n</w>
th ese</w>
te mp
g a
al s</w>
n am
ap p
lo w
sp ar
es t</w>
as t</w>
ev alu
v ed</w>
c es</w>
tas k</w>
accur acy</w>
m entation</w>
i gh
sign al</w>
be twe
net work</w>
func tion</w>
a co
betwe en</w>
super vised</w>
o ver</w>
h u
lu tion</w>
mor e</w>
ati ng</w>
de scri
l ing</w>
ha ve</w>
st atis
ti v
wor ks</w>
spec i
h as</w>
speak er</w>
aco us
ar d</w>
s amp
p at
struc ture</w>
ve n</w>
d u
e ffec
objec t</w>
se lec
no t</w>
co mb
on s</w>
bo th</w>
h an
spec tr
b i
pres ent</w>
so ur
r ate</w>
enc es</w>
ou t</w>
sc al
al i
ent al</w>
distrib u
al so</w>
h e
s ch
d y
ar ch
clu st
con struc
ro u
le vel</w>
doma in</w>
m ach
ro n
pu t</w>
co ding</w>
s er
lar ge</w>
con di
l ation</w>
di s
se man
proble ms</w>
im in
loc al</w>
acous tic</w>
f requ
us t</w>
re al</w>
di m
t a
mo tion</w>
de mon
as e
demon str
on al</w>
ed ge</w>
ex trac
syn the
p le</w>
ma xim
mo d
struc t
i r</w>
mul t
optim ization</w>
techniqu es</w>
ul ar</w>
comb in
t ain
f ace</w>
t en
l d</w>
dy nam
sp on
ne ural</w>
m il
net works</w>
y ing</w>
min im
l s</w>
o d</w>
li k
differ ent</w>
w el
e ach</w>
dat ase
fi r
v ing</w>
repres entation</w>
ent ed</w>
co l
' '</w>
al l
y p
t e</w>
th an</w>
tic s</w>
proces sing</w>
hu man</w>
t ly</w>
b ay
in te
automa tic</w>
al ization</w>
p ri
di rec
or der</w>
tr a
temp or
ve lo
b ac
dim ensi
proc ess</w>
r imin
n on</w>
experim ents</w>
sc en
vi e
lin e</w>
tr i
res o
vide o</w>
n at
parame ters</w>
k er
si mil
depend ent</w>
el i
ph on
con ver
metr ic</w>
t ors</w>
multi ple</w>
sch e
in to</w>
w a
no vel</w>
ro b
di st
lab el
st u
ga us
disc rimin
mar k
hi gh</w>
ent ly</w>
p a
c re
techniqu e</w>
h y
t yp
mach ine</w>
re spon
know l
vec tor</w>
vis ual</w>
wh en</w>
ac hi
it er
be en</w>
l is
frequ ency</w>
si tion</w>
qu ality</w>
classi fi
nu mb
pl an
appro xim
tempor al</w>
redu c
il e</w>
id enti
seg mentation</w>
mat ri
sho w
knowl edge</w>
le x
prob abil
m is
model ing</w>
rob ust</w>
matri x</w>
de velo
a d</w>
' s</w>
sh ap
ver y</w>
b le</w>
statis tical</w>
po l
g o
seman tic</w>
wel l</w>
mat ch
u s</w>
mi x
chan nel</w>
d ed</w>
s ing
spar se</w>
hi gh
f u
ach es</w>
ran do
k e
v es</w>
numb er</w>
p i
comple x
re s</w>
o f
e sian</w>
l at
res sion</w>
si gni
bay esian</w>
d y</w>
comp on
3 d</w>
we igh
n or
appro aches</w>
grap h</w>
ar t</w>
st o
comp o
ic e</w>
gaus sian</w>
clas s</w>
tas ks</w>
ter n
o ther</w>
complex ity</w>
signi fic
c al</w>
c ap
in tro
e mp
reg i
s ur
g y</w>
n ess</w>
al ized</w>
a tion
on ly</w>
enti al</w>
effici ent</w>
ob ser
trans lation</w>
mult i</w>
j o
tic ally</w>
comput ational</w>
clust ering</w>
so l
applic ations</w>
i es</w>
sp ati
trac king</w>
demonstr ate</w>
fir st</w>
v alu
optim al</w>
scal e</w>
spectr al</w>
the ir</w>
su p
s b-</w>
de ci
wh ere</w>
g lo
o v</w>
sour ce</w>
wi th
ch ar
de si
in ference</w>
e qu
pro vi
con ti
un i
ar ity</w>
know n</w>
sign als</w>
grap h
fi el
t ar
co m
char ac
ul ation</w>
non -
it e</w>
ve ly</w>
po int</w>
cor rel
selec tion</w>
w er</w>
tar ge
au di
si mp
adap tive</w>
distribu tion</w>
conti nu
es ti
dimensi onal</w>
r e</w>
ac tion</w>
dynam ic</w>
t ual</w>
pro gra
mark ov</w>
rando m</w>
p s</w>
e i
in t
si ve</w>
th en</w>
bu t</w>
adap tation</w>
re construc
ker nel</w>
nat ural</w>
pu s</w>
c r
or t
par tic
multi -
wh ile</w>
si z
sche me</w>
ex t
d ic
constrain ts</w>
str ate
g n</w>
cor pus</w>
ic s</w>
ure d</w>
experim ental</w>
func tions</w>
hi er
am er
predic tion</w>
ge o
hier arch
o ver
probabil istic</w>
wor ds</w>
g ro
ho od</w>
de s</w>
c ro
d eri
co mm
si mul
e l</w>
shap e</w>
in put</w>
fil ter</w>
st s</w>
en vi
ev er</w>
f ul
qu an
ag es</w>
o per
so ci
envi ron
phon e
dat ab
as es</w>
pre vi
a red</w>
match ing</w>
e ar
mo st</w>
b an
lin gu
ad di
o c
c amer
pro per
man y</w>
u p
und er
ph one</w>
evalu ation</w>
maxim um</w>
ho w
con text</w>
s or</w>
how ever</w>
t ree</w>
vi sion</w>
ing s</w>
fi c</w>
ul ar
al -
ter min
glo b
ent ations</w>
al o
se ver
am e</w>
us er</w>
spati al</w>
o re
con tro
ho w</w>
ex is
comp ar
e -
s s
iz e</w>
ac t</w>
lik eli
sing le</w>
fi ed</w>
lis h</w>
achi ev
extrac tion</w>
du ce</w>
charac ter
deci sion</w>
pro duc
e p</w>
se par
m m</w>
objec ts</w>
wor ld</w>
g ing</w>
t op
m es</w>
ex pl
par ti
ali gn
con t
audi o</w>
imp le
an no
develo p
per cep
w s</w>
in cre
t re
nor m
bac k
targe t</w>
sp o
imp ort
s ent
a v
s m
impro ve
se ts</w>
cor por
exp lo
gi ven</w>
sever al</w>
le ss</w>
di alo
pro jec
si ble</w>
s hi
the ore
reg ression</w>
stan d
re tri
por t</w>
m er
datase ts</w>
de fin
l ay
likeli hood</w>
t ter</w>
de n</w>
in clu
comp ared</w>
reduc tion</w>
no is
ex pres
simil arity</w>
un der</w>
n ing</w>
c lo
descri p
exis ting</w>
continu ous</w>
ob tain
c al
bo o
retri ev
desi gn</w>
iz ing</w>
stu dy</w>
si ons</w>
glob al</w>
inte gr
tr ic</w>
de ep</w>
t est</w>
n ec
jo int</w>
cor respon
at or</w>
sequ ence</w>
or d
ta in</w>
as tic</w>
ic es</w>
co st</w>
ed i
al le
l im
ti l
gra di
th rou
be tter</w>
hi d
so lution</w>
ex amp
tr ib
f ur
ac tive</w>
samp ling</w>
condi tions</w>
b in
parame ter</w>
discrimin ative</w>
po st
reconstruc tion</w>
as su
di g
de termin
hid den</w>
cur r
un supervised</w>
proc edu
prob ability</w>
in dependent</w>
speci fic</w>
ti n
po wer</w>
log y</w>
b en
ter ing</w>
hierarch ical</w>
c an
i al</w>
an e
d ence</w>
vie w</w>
reso lution</w>
ch all
g ence</w>
fiel d</w>
in v
so me</w>
al low
mix ture</w>
fu l</w>
comput er</w>
provi de</w>
b a
k en</w>
de compo
t ac
vari ance</w>
stand ard</w>
c ase</w>
p e
r ati
sto ch
ce ment</w>
co un
classifi er</w>
gener al</w>
scen e</w>
comm un
log ical</w>
b il
a il
consi st
retriev al</w>
f t</w>
bo und
requ i
reg ular
datab ase</w>
si c</w>
r u
eng lish</w>
e mb
ab les</w>
t -
meas ure</w>
identi fication</w>
ut ed</w>
con ve
ar tic
previ ous</w>
po s
po in
on line</w>
impro ve</w>
nois y</w>
c a
do cu
ic ally</w>
tiv ity</w>
quan ti
repres entations</w>
camer a</w>
for ma
stoch astic</w>
d ual</w>
i ed</w>
spo ken</w>
c ar
c c
perform s</w>
u p</w>
vo ice</w>
synthe sis</w>
b est</w>
datase t</w>
po se</w>
emb ed
l a
simp le</w>
s qu
ad d
dist ance</w>
se con
obser v
c el
throu gh</w>
obtain ed</w>
us es</w>
gu e</w>
pro p
proper ties</w>
it eri
a mo
cr iteri
conve x</w>
2 0
gh t</w>
g rou
show n</w>
gro und</w>
wa ve
v en
an tly</w>
f ast</w>
app ing</w>
parame tric</w>
gra m</w>
esti g
pr in
d ur
sequ ences</w>
inv estig
pri or</w>
b and</w>
add res
es s
t en</w>
it ed</w>
synthe tic</w>
in i
s mo
sup port</w>
poin ts</w>
gradi ent</w>
ensi ty</w>
v an
lat ent</w>
comple x</w>
compon ent</w>
w as</w>
approxim ation</w>
distrib uted</w>
res t</w>
it ec
c ate
me an
e t</w>
applic ation</w>
reco gn
on g</w>
arch itec
correl ation</w>
se t
- -</w>
fil tering</w>
r s</w>
o us
y -
i ties</w>
con cep
smo o
en er
st re
constrain t</w>
appl ied</w>
pat tern
trans form</w>
out put</w>
h er
ter ms</w>
le t</w>
gra m
pa ir
cor rec
pi x
con fi
b er
th ree</w>
w ise</w>
g in
ne ls</w>
struct ures</w>
be ha
import ant</w>
f y</w>
pattern s</w>
struct ured</w>
disc re
re as
mm ing</w>
contro l</w>
intro duce</w>
vo lu
signific antly</w>
with out</w>
bu il
sy m
align ment</w>
il lu
siz e</w>
beha vi
k e</w>
s ame</w>
procedu re</w>
en d</w>
ver age</w>
un ds</w>
ph r
han d
di c</w>
estim ate</w>
t ur
ac tions</w>
ti vely</w>
dis co
t al</w>
d en
man i
m ic
w ard</w>
progra mming</w>
post eri
t ak
fra me</w>
pres ented</w>
er y</w>
o s</w>
intro duc
label ed</w>
-r sb-</w>
en han
compon ents</w>
is tics</w>
p ho
a m</w>
rel ative</w>
h mm</w>
ph ase</w>
col lec
pro so
commun ic
vec tors</w>
strate gy</w>
f a
sp ac
ad van
prop ag
par alle
t u
prin ci
pres ents</w>
o m
sur face</w>
po si
l l
rec ur
dist or
in s</w>
h ar
loc ation</w>
b it
app ear
par sing</w>
me an</w>
bas el
ous ly</w>
combin ation</w>
l ic
ener gy</w>
en ess</w>
signific ant</w>
b ri
bin ary</w>
-l sb-</w>
ch o
sm all</w>
bac k</w>
b loc
g re
con nec
meas ure
an y</w>
allow s</w>
ter m</w>
ma y</w>
i de
v al
pol y
me mor
bu st
per form</w>
d ri
distribu tions</w>
si ty</w>
s cor
ma p</w>
ver i
w ar
vari ant</w>
wa y</w>
weigh ted</w>
t or
plan ning</w>
ab out</w>
s v
b ro
iter ative</w>
classifi ers</w>
ste p</w>
train ed</w>
m u
t ures</w>
non linear</w>
vi a</w>
ne g
e ve</w>
condi tional</w>
valu e</w>
ar ra
form ul
p as
top ic</w>
ro bust
st ed</w>
lik e</w>
av ail
decompo sition</w>
emp ir
vo c
mic ro
reso ur
objec tive</w>
tran scri
effec tive</w>
to -
constrain ed</w>
co der</w>
vari ous</w>
eri es</w>
erro rs</w>
ac c
descri b
typ e</w>
g s</w>
ran ge</w>
reas on
p it
su cc
automa tically</w>
lo ss</w>
the ory</w>
gener ation</w>
ste re
par t</w>
anno t
u til
gener alized</w>
approxim ate</w>
an ces</w>
n er</w>
ut ter
secon d</w>
s in
ul e</w>
ini ti
hy po
ru les</w>
with in</w>
memor y</w>
sub space</w>
qu es
to o
f er</w>
ec han
minim um</w>
propag ation</w>
ad ing</w>
descri be</w>
quanti z
re al-
comput ation</w>
di vi
m ental</w>
con tex
di ver
am bi
du e</w>
ul d</w>
c en
discre te</w>
partic ular</w>
lex ical</w>
p rec
conver gence</w>
m echan
re le
back ground</w>
paralle l</w>
we b</w>
improve ment</w>
of ten</w>
vide s</w>
in es</w>
w ere</w>
d -
basel ine</w>
avail able</w>
pol ic
pr ac
analy z
lear n</w>
reco r
co effici
de coding</w>
as soci
coeffici ents</w>
dic tion
e ven</w>
eng th</w>
mar k</w>
tiv eness</w>
con ven
rel ated</w>
pro vides</w>
r ates</w>
ane ous</w>
enc ies</w>
metr y</w>
impro ved</w>
sub jec
architec ture</w>
i d</w>
robust ness</w>
dialo gue</w>
meas ures</w>
sour ces</w>
t ag
col or</w>
voc ab
ben ch
sen sor</w>
g er</w>
dep th</w>
appear ance</w>
tac tic</w>
vocab ul
ful ly</w>
in corpor
sent ence</w>
pos sible</w>
p ing</w>
rec ent</w>
ari es</w>
achi eve</w>
ti me
criteri on</w>
fur ther</w>
langu ages</w>
fin ite</w>
se l
regi ons</w>
vari ables</w>
re li
c all
re search</w>
at ors</w>
ag ent</w>
separ ation</w>
al tern
m apping</w>
it u
b lin
s co
d ings</w>
fo l
ch in
accur ate</w>
le r</w>
ex ten
he ur
inclu ding</w>
ne igh
f low</w>
mo di
fil ters</w>
fac es</w>
emp lo
ensi ve</w>
develop ed</w>
fe ed
t able</w>
depend ency</w>
m edi
vo l
u ally</w>
ambi gu
un known</w>
trib ut
gi es</w>
m ented</w>
doma ins</w>
consi der</w>
stu di
ro bo
is m</w>
spectr um</w>
gin al</w>
d ensity</w>
ate ly</w>
vocabul ary</w>
p er</w>
proces ses</w>
the y</w>
oc clu
ne u
exp ec
qu ery</w>
po t
b l
rec ently</w>
call ed</w>
p y</w>
artic ul
rele v
theore tical</w>
at ory</w>
resul t</w>
il l</w>
stere o</w>
soci al</w>
examp les</w>
effec tiveness</w>
vari able</w>
ter n</w>
environ ment</w>
de sign
b eli
lingu istic</w>
assu mp
nu mer
typ es</w>
syn tactic</w>
th ere</w>
lab el</w>
ba sis</w>
pit ch</w>
no mi
g .</w>
environ ments</w>
su m
re ver
blin d</w>
l ed</w>
an s
log ic</w>
out performs</w>
mod al</w>
effici ency</w>
so und</w>
mo n</w>
re spec
ext end
neigh b
advan t
simil ar</w>
conven tional</w>
per s
compar is
pro n
n o</w>
si mult
pat tern</w>
re ference</w>
clas ses</w>
rec ei
estim ates</w>
gram ma
docu ment</w>
ent ro
develo p</w>
d ate</w>
chin ese</w>
reason ing</w>
ran k</w>
lu tions</w>
e ment</w>
curr ent</w>
ar bit
lim ited</w>
transcri p
p ur
com mon</w>
rati o</w>
in divi
geo metric</w>
cont ent</w>
arbit r
ph y
f ree</w>
v ar
ac tivity</w>
deri ved</w>
ou gh</w>
f ying</w>
se mi
stan ding</w>
a verage</w>
fi x
neg ative</w>
d o</w>
in ver
in de
form s</w>
rel ation
rel ations</w>
or t</w>
fo ld</w>
f r
a x
iz er</w>
tre es</w>
phy si
e f
fac tor
relation shi
a -
go od</w>
el li
consi d
mat r
arra y</w>
distor tion</w>
ul t</w>
n a
con volu
in stan
veri fication</w>
cate g
matr ices</w>
di ffic
m ent
spac es</w>
tra di
phone tic</w>
scor e</w>
ib r
comp res
gener ative</w>
st ation
samp le</w>
lingu al</w>
an g
smoo th
20 0
valu es</w>
hy bri
form ulation</w>
e .
fac tor</w>
lay er</w>
var ying</w>
statis tics</w>
fin d</w>
imple mentation</w>
addres s</w>
th er
ord in
le ast</w>
resul ting</w>
samp les</w>
graph s</w>
b it</w>
minim ization</w>
comp ression</w>
ran king</w>
in do
character istics</w>
under standing</w>
en s
proso dic</w>
e. g.</w>
fu sion</w>
trans formation</w>
disc us
le -
mo no
i f</w>
at ure</w>
diction ary</w>
estim ated</w>
th us</w>
learn ed</w>
jec t
o ff
high er</w>
bo und</w>
empir ical</w>
strate gies</w>
so lutions</w>
hybri d</w>
ar ti
st age</w>
dri ven</w>
chall eng
e f</w>
achiev ed</w>
at tribut
communic ation</w>
tho se</w>
sequ ential</w>
con tr
speak ers</w>
challeng ing</w>
ac ro
parti al</w>
regi on</w>
i p
projec tion</w>
time -
it al</w>
enhan cement</w>
inter pre
posteri or</w>
l ength</w>
itu de</w>
in variant</w>
i .
poly nomi
r ule</w>
m i</w>
s ec
cro ss</w>
wave let</w>
u se
ch ron
in tr
expl or
in duc
gener ated</w>
s ensi
evalu ate</w>
t on
o -
m uc
esti ma
er -
c er
comp u
loc alization</w>
y i
arbitr ary</w>
chall en
percep tual</w>
yi el
entit y</w>
unc i
expl ic
e le
tra ject
po p
a re
low er</w>
prec i
obser ved</w>
muc h</w>
str ic
the m</w>
corpor a</w>
re in
2 d</w>
pron unci
in dic
gen e
feed back</w>
c ed</w>
simul ation</w>
classi cal</w>
bo unds</w>
entro py</w>
rein for
behavi or</w>
wi de
as y
b ra
j u
is ing</w>
high -
co de</w>
comple te</w>
a res</w>
tradi tional</w>
m ic</w>
regular ization</w>
scen ari
f lu
s n
pix el</w>
st or
dig ital</w>
acro ss</w>
improve ments</w>
perform ed</w>
respon se</w>
ati vely</w>
di ag
conver s
lo g</w>
int elli
ag ents</w>
vie w
l ong</w>
an ts</w>
ful l</w>
achiev es</w>
a use</w>
phone me</w>
effici ently</w>
amo ng</w>
show s</w>
dur ing</w>
h ere</w>
e m</w>
comp e
cal ibr
s ting</w>
tex ture</w>
su g
pat h</w>
re al
sp i
m as
in vol
chan nels</w>
ac qu
station ary</w>
w ill</w>
redu ce</w>
trans fer</w>
chan ges</w>
ori es</w>
re f
par s
vari ational</w>
reinfor cement</w>
do es</w>
princi p
ke y</w>
set ting</w>
k -
is su
mean s</w>
for e</w>
th res
ob tain</w>
n n</w>
fin ally</w>
estima ting</w>
estim ator</w>
inte rest</w>
fiel ds</w>
o l
ab ly</w>
spe ed</w>
ra di
grou p</w>
bench mark</w>
us ers</w>
sen sing</w>
e .</w>
s ali
polic y</w>
bro ad
addi tion</w>
sin ce</w>
thres ho
be am
or i</w>
ev ent</w>
w ho
requ ir
convolu tional</w>
illu min
graph ical</w>
comp are</w>
bloc k</w>
beli ef</w>
or tho
s atis
is t</w>
at ten
label ing</w>
ap s</w>
embed ding</w>
se mi</w>
ti ce</w>
i. e.</w>
concep t</w>
sen s
ori ginal</w>
phr ase</w>
label s</w>
pair s</w>
gramma r</w>
m ut
ay s</w>
cu es</w>
sen se</w>
confi dence</w>
sv m</w>
de red</w>
app ly</w>
un its</w>
spar sity</w>
g am
ab str
unc er
comparis on</w>
scen es</w>
measure ments</w>
cen tr
sh ort</w>
geo metry</w>
rever ber
sche mes</w>
quantiz ation</w>
mani fold</w>
ke y
examp le</w>
gener alization</w>
co variance</w>
iz es</w>
for ward</w>
comp ens
hy per
mis sion</w>
polynomi al</w>
investig ate</w>
cu s</w>
ne t</w>
consist ency</w>
he ad</w>
g ib
numer ical</w>
anno tation</w>
a si
u tion</w>
it ation</w>
b ec
gu ar
evalu ated</w>
h el
g in</w>
inter ference</w>
w are</w>
deri ve</w>
no des</w>
it ting</w>
h and</w>
lo o
rel ation</w>
la y</w>
st ance</w>
ver s</w>
a in</w>
recur r
fo cus</w>
c ases</w>
c ast</w>
ad s</w>
factor ization</w>
fac ial</w>
ma in
chan ge</w>
t un
a f
st -
direc t</w>
compu ting</w>
ban k</w>
b r
ques tion</w>
direc tly</w>
indivi dual</w>
co her
w n</w>
par ts</w>
ma in</w>
amo un
i l</w>
cap ture</w>
pr im
ne ws</w>
an te
sent ences</w>
ge -
v al</w>
reco very</w>
as r</w>
guar ante
effec ts</w>
re stric
impro ves</w>
high ly</w>
coun t</w>
use ful</w>
bec ause</w>
e lec
ma ke</w>
li ght</w>
co me</w>
fra mes</w>
the re
nor m</w>
go al</w>
pres er
preci sion</w>
detec tor</w>
ima ging</w>
f lex
c le
th ough</w>
inter action</w>
wh e
in e
dynam ics</w>
beam form
prac tical</w>
of f</w>
pronunci ation</w>
trans m
mu sic</w>
sol ving</w>
flex ib
a y</w>
fix ed</w>
bas e</w>
hypo the
fo und</w>
a ff
trans l
w indo
cep str
bil ity</w>
t aneous</w>
co ordin
cro ss
struct ural</w>
co de
z er
ref lec
forma tions</w>
su b</w>
mach ines</w>
ed -
on ality</w>
l ac
recurr ent</w>
qu ad
squ ares</w>
st ro
un it</w>
ur se</w>
k er</w>
consist ent</w>
can di
g er
st y
micro phone</w>
incre as
ev ents</w>
low -
vo cal</w>
stre am</w>
semi -
c ul
wi de</w>
seman tics</w>
en ting</w>
effec t</w>
bi o
vide os</w>
ther more</w>
val id
is h
fur thermore</w>
l p</w>
descrip tion</w>
combin ed</w>
simul ations</w>
illumin ation</w>
pu ts</w>
design ed</w>
sym bo
defin ed</w>
a k</w>
seg ments</w>
ei gen
ci r
mo b
vie ws</w>
sol ve</w>
sum mar
vari ations</w>
k ed</w>
n s</w>
correspon ding</w>
s eries</w>
reduc ed</w>
k es</w>
introduc ed</w>
e ty</w>
pro to
mob ile</w>
st er</w>
ten sor</w>
m a</w>
bound ary</w>
j ap
mechan ism</w>
ortho g
as se
re si
weigh ts</w>
vari ation</w>
syn chron
st ant</w>
mar gin</w>
g ame</w>
ch es</w>
te le
wi re
si de</w>
mo tiv
combin ing</w>
dis tin
temp l
succ ess
r ic
observ ations</w>
contr ast</w>
acqu i
m d
exp on
en co
y s</w>
speci fic
l ying</w>
fro n
con trib
uncer tain
of -
ker nels</w>
sco res</w>
re mo
an ese</w>
a i
tin gs</w>
l o</w>
tech no
g ur
extrac ted</w>
describ es</w>
as p
h as
mod ulation</w>
probabil ities</w>
detec ting</w>
po sition</w>
ur s</w>
lis h
wire less</w>
utter ances</w>
observ ation</w>
vari ety</w>
propo ses</w>
ro o
m r
lex i
conver sion</w>
to po
ma tic</w>
co n</w>
gener ate</w>
fin ding</w>
ban d
requi res</w>
calibr ation</w>
robo t</w>
jap anese</w>
op en</w>
trans mission</w>
den o
ec t</w>
pix el
mat ch</w>
st ates</w>
pot ential</w>
ma king</w>
con tain
sel f</w>
ri gi
le ve
de gra
wi d
rigi d</w>
real- world</w>
articul atory</w>
rel ax
pa ir</w>
li gh
de sc
illu str
d ra
cont our</w>
vo ic
posi tive</w>
extend ed</w>
initi al</w>
sen tim
in stance</w>
ne ed</w>
relev ant</w>
con s
f am
al low</w>
clust er</w>
al location</w>
requir e</w>
discrimin ant</w>
per i
i ting</w>
fo c
addi tional</w>
har mon
w at
or ing</w>
heur istic</w>
ati c</w>
e u
ane ously</w>
auto m
as sign
pair wise</w>
depend encies</w>
compe ti
resour ce</w>
m ms</w>
diffic ult</w>
associ ated</w>
n -
m -
bound aries</w>
m ed</w>
sensi tive</w>
atten tion</w>
p en
expres sion</w>
de v
uni fied</w>
p e</w>
dialo g</w>
pres ence</w>
con duc
car lo</w>
desc ent</w>
princip al</w>
is h</w>
inver se</w>
i an</w>
il ity</w>
confi gur
studi es</w>
disco urse</w>
th s</w>
model ling</w>
consi dered</w>
develop ment</w>
under lying</w>
exten sion</w>
annot ated</w>
norm alization</w>
fol low
m aps</w>
docu ments</w>
man ner</w>
es ting</w>
in ste
transcrip tion</w>
leve ls</w>
c ri
ro le</w>
mor pho
de lay</w>
simult aneously</w>
assump tion</w>
clust ers</w>
r ing</w>
is ation</w>
appro pri
ar gu
gam es</w>
- d</w>
den se</w>
ar ing</w>
maxim ization</w>
direc tion</w>
p ac
boo sting</w>
super i
broad cast</w>
d it
sentim ent</w>
in -
demonstr ated</w>
addi tive</w>
orthog onal</w>
in gu
identi fy</w>
e t
ac cor
ric h
se mb
fac tors</w>
au dit
mis sing</w>
inter po
squ are</w>
inter actions</w>
ei ther</w>
c y
ad e</w>
ver s
uncertain ty</w>
lab or
en sion</w>
ma kes</w>
fic ial</w>
0 0</w>
previ ously</w>
ut e</w>
repres ent</w>
p c
metr ics</w>
hypothe sis</w>
uni form</w>
h ard</w>
interpo lation</w>
bo t
f und
simul ated</w>
correc t</w>
quad rati
percep tion</w>
e mo
le ads</w>
inste ad</w>
challen ge</w>
smoo th</w>
partic le</w>
wid th</w>
dur ation</w>
ch ing</w>
cate gori
r is
l -
mon te</w>
co des</w>
sn r</w>
comput ed</w>
b s</w>
0 .
war ds</w>
e st
un labeled</w>
equ i
de ta
mo re
in sic</w>
be ing</w>
ans w
gener ic</w>
expres sions</w>
advant age</w>
cross -
instan ces</w>
func tional</w>
ser v
jo in
gener al
audit ory</w>
more over</w>
bo dy</w>
plan e</w>
ac count</w>
pars er</w>
clo sed</w>
amoun t</w>
ag ing</w>
anal o
str ation</w>
co u
st atic</w>
fund am
so ft</w>
datab ases</w>
camer as</w>
speci ally</w>
ne ed
condi tion</w>
resour ces</w>
mo ve
l iter
mut ual</w>
d a</w>
ori al</w>
autom ated</w>
ver sion</w>
ma j
op tical</w>
differ ence</w>
th es
imp lic
r ich</w>
no de</w>
ma de</w>
dimensi onality</w>
li st
ag ain
per spec
gene ous</w>
fe w</w>
measure ment</w>
c as
tim es</w>
mo de</w>
ext ensive</w>
g est</w>
quadrati c</w>
seg ment</w>
ma gn
hu man
e e
recogn izer</w>
e motion</w>
cepstr al</w>
requi red</w>
i er</w>
again st</w>
on -
ed ges</w>
n ative</w>
categ or
respec t</w>
physi cal</w>
mo ving</w>
exp an
edi a</w>
qu eries</w>
hi c</w>
d ar
cal cul
pho to
1 0</w>
ga in</w>
ex am
cer tain</w>
al it
non parametric</w>
i i</w>
s i</w>
fo ur
list en
en coding</w>
quan tit
mod ul
provi ded</w>
su it
specific ally</w>
pas s</w>
c ing</w>
regi stration</w>
iter ation</w>
dat es</w>
altern ative</w>
w r
there fore</w>
s k
ca us
p ul
hi sto
gra ms</w>
a ffec
ord ering</w>
impro ving</w>
typ ically</w>
tran sition</w>
til l</w>
t ured</w>
con stant</w>
re ly</w>
h mms</w>
tion ing</w>
weigh t</w>
fer ences</w>
contex tual</w>
lar ge-
ari ties</w>
si tu
integr ated</w>
buil ding</w>
re por
pro duce</w>
categori es</w>
theore tic</w>
progra m</w>
proper ty</w>
comput e</w>
so f
- to-
su m</w>
stro ng</w>
over all</w>
est ab
le a
effec tively</w>
bil ingu
en semb
de coder</w>
requi re
pixel s</w>
s a
utter ance</w>
g an
tion ally</w>
al though</w>
too l</w>
equi val
c o</w>
analyz e</w>
fundam ental</w>
in ed</w>
e specially</w>
s till</w>
explo iting</w>
correspon dence</w>
integr ation</w>
compar able</w>
occlu sion</w>
car ri
predic tive</w>
relationshi ps</w>
re fin
tran si
sens ors</w>
pr un
comp act</w>
acc ess</w>
compo si
attribut es</w>
ation ally</w>
in flu
w ays</w>
to tal</w>
pl ay
me ss
appropri ate</w>
accor ding</w>
g mm</w>
tion -
sch edu
correl ated</w>
sur faces</w>
fa ster</w>
di sp
d ers</w>
int ensity</w>
enti ally</w>
deno ising</w>
bra in</w>
trac t</w>
para dig
intr insic</w>
f -
explo it</w>
tw o-
te red</w>
reco mm
flexib le</w>
bilingu al</w>
compres sed</w>
me ly</w>
us ually</w>
tra in</w>
pro mis
st able</w>
imple mented</w>
bay es</w>
summar ization</w>
ed y</w>
ev o
aff ine</w>
oc curr
af ter</w>
a vo
out li
pop ular</w>
lin k</w>
siz ed</w>
scenari os</w>
descrip tors</w>
construc tion</w>
n ist</w>
amp l
l ap
en ables</w>
smooth ing</w>
norm alized</w>
it ly</w>
ho mo
gi ve</w>
e vi
log ies</w>
criteri a</w>
perspec tive</w>
arti ficial</w>
real- time</w>
r un
dim ension</w>
produc tion</w>
inter active</w>
explic it</w>
ain s</w>
m im
ag g
su ffici
collec tion</w>
norm al</w>
regular ized</w>
qu alit
c t</w>
a im
mar ks</w>
magn itude</w>
k in
cou pl
appl ying</w>
rel ational</w>
is o
recur sive</w>
elec tro
tag ging</w>
f itting</w>
zer o</w>
au g
cle an</w>
y ed</w>
thes es</w>
sty le</w>
ra ther</w>
compens ation</w>
trans formations</w>
s ha
in depend
concep ts</w>
c s</w>
consid er
recomm end
produc t</w>
te sts</w>
traject ory</w>
repres ented</w>
ex act</w>
detec t</w>
con to
spon taneous</w>
te sted</w>
rando m
multi modal</w>
har d
pe op
direc ted</w>
s ke
embed ded</w>
inde x
re ad</w>
direc tional</w>
are a</w>
t esting</w>
liter ature</w>
exten d</w>
peop le</w>
ma x</w>
comput ationally</w>
differ ences</w>
appro x
ne a
incre mental</w>
experim ent</w>
co oper
t al
se en</w>
gre edy</w>
modi fied</w>
c s
acqui sition</w>
tr u
g ed</w>
convers ational</w>
com es</w>
approx ima
-l i
pers on</w>
hypo theses</w>
nea rest</w>
incre ase</w>
phon es</w>
cro w
pri ors</w>
s wit
g -
co gni
c at
suit able</w>
m f
extrac t</w>
d ences</w>
b al
nat ure</w>
b re
who se</w>
connec ted</w>
vari ability</w>
relationshi p</w>
promis ing</w>
s -
on es</w>
nec ess
wide ly</w>
too ls</w>
advant ages</w>
mp to
sub set</w>
candi date</w>
mix ed</w>
expec ted</w>
al ong</w>
ll able</w>
e asi
trac table</w>
col labor
superi or</w>
sc i
detec tors</w>
join tly</w>
is ms</w>
f our</w>
r up
pr e</w>
he ter
ch ain</w>
a ms</w>
wh at</w>
sub stan
reverber ation</w>
ide a</w>
ar ly</w>
se ly</w>
set tings</w>
nat ur
yiel ds</w>
sali ency</w>
or gan
to p</w>
gener ating</w>
on to
multi pl
lexi con</w>
un ding</w>
lat tice</w>
explor e</w>
beamform ing</w>
h o</w>
conto urs</w>
r ap
motiv ated</w>
lish ed</w>
heter o
f al
substan ti
semi- supervised</w>
res sive</w>
li f
n d
competi tive</w>
co uld</w>
res s</w>
form ed</w>
deri v
hand le</w>
sho uld</w>
sc a
describ ed</w>
expon ential</w>
al ing</w>
shap es</w>
progra ms</w>
m ed
ar ri
fi t</w>
f 0</w>
import ance</w>
evi dence</w>
nam ed</w>
discus s</w>
f s</w>
assump tions</w>
ris k</w>
com mon
ali ties</w>
1 -
recor dings</w>
grap hic</w>
consi sts</w>
s tim
c y</w>
up date</w>
harmon ic</w>
ori entation</w>
cogni tive</w>
recei ver</w>
asy mpto
shi ft</w>
diff u
techno logy</w>
pur pose</w>
po w
pat ches</w>
n al</w>
four ier</w>
studi ed</w>
can cel
vi r
i ly</w>
trans duc
as si
neu ron
ne w
minim al</w>
vari ate</w>
large- scale</w>
bi as</w>
l as
fam ily</w>
b i</w>
restric ted</w>
eri al</w>
thresho ld</w>
un like</w>
whe ther</w>
proso dy</w>
ex c
ef for
correspon dences</w>
sy llable</w>
pu b
pro ve</w>
pl ac
relev ance</w>
man ag
loc ations</w>
g ri
caus al</w>
se -
gram mar
multi p
weigh ting</w>
windo w</w>
metho do
lan d
interpre tation</w>
ans wer</w>
tiv es</w>
match ed</w>
tak e</w>
t es</w>
t one</w>
min ing</w>
in forma
imp o
l on
determin istic</w>
fac t</w>
paradig m</w>
indic ate</w>
tex ts</w>
n ar
cl ut
ad op
selec ted</w>
ph en
e ly</w>
determin e</w>
abstr act</w>
to wards</w>
st ac
scal able</w>
success fully</w>
neighb or</w>
diag no
j unc
redu nd
pac ke
issu es</w>
g ent</w>
pro g
ensemb le</w>
respon ses</w>
pi ec
simult aneous</w>
peri o
m ust</w>
valu ed</w>
h or
perform ing</w>
buil d</w>
s on</w>
lin es</w>
fin e</w>
qualit ative</w>
di rich
ele ments</w>
c ra
answ ering</w>
ampl itude</w>
pl an</w>
subjec tive</w>
man ual</w>
e y
sh ort
re ve
princi ple</w>
predic ting</w>
b at
real istic</w>
pc a</w>
form al</w>
ment ary</w>
k al
id ed</w>
resi dual</w>
transm it
an s</w>
re t</w>
diffu sion</w>
charac ter</w>
speci al</w>
prun ing</w>
m ing</w>
categ ory</w>
we ak
over l
inclu de</w>
ec ho</w>
di a
c ular</w>
inter face</w>
grammar s</w>
deta il
ver ing</w>
n a</w>
a i</w>
has h
correc tion</w>
tre e
sub -
illustr ate</w>
glo t
dis ambigu
o logical</w>
mim o</w>
ac tiv
util ity</w>
cl ide
f ar</w>
expec tation</w>
agg reg
we l</w>
ba sic</w>
y et</w>
traject ories</w>
c ent
to ge
toge ther</w>
form al
clide an</w>
ab o
estim ators</w>
con vo
vo wel</w>
forma ble</w>
cho ice</w>
annot ations</w>
sug gest</w>
relax ation</w>
dirich let</w>
the ma
templ ate</w>
multi lingual</w>
reli able</w>
predic t</w>
fer red</w>
combin es</w>
t a</w>
stim ul
out perform</w>
ori ented</w>
construc t</w>
so unds</w>
ec ts</w>
man dar
graph y</w>
neu ro
lay ers</w>
l en
ma thema
phen om
phenom en
ate -
in ter</w>
disco very</w>
band width</w>
ut h</w>
index ing</w>
conduc ted</w>
bound ed</w>
comb ine</w>
qu e</w>
mod ular</w>
o und</w>
m en
sup pres
re pe
mandar in</w>
diver gence</w>
tit u
issu e</w>
sha red</w>
maj or</w>
cir cu
vi ties</w>
trac tion</w>
defin ite</w>
ic ation</w>
hard ware</w>
b lu
parame ter
kal man</w>
mix tures</w>
contrib ution</w>
explic itly</w>
differ ential</w>
au th
1 9
grou ps</w>
do wn</w>
convo lution</w>
cas c
simp li
rec all</w>
p sy
evalu ations</w>
e p
ti z
sof tw
can on
wr it
necess ary</w>
eu clidean</w>
su mm
model ed</w>
suffici ent</w>
oper ator</w>
ne ar</w>
ti vities</w>
ge st
-r an
thresho l
redu ces</w>
tele phone</w>
respec tively</w>
pri ori</w>
pos si
vari ants</w>
ro und</w>
ger man</w>
attribut e</w>
co -
sp a
c all</w>
adap ted</w>
di stan
ra d
preser ving</w>
identi fying</w>
as ed</w>
scal ing</w>
repor ted</w>
po ses</w>
iz ers</w>
intelli gib
an other</w>
out puts</w>
c c</w>
cri tical</w>
softw are</w>
ar -
tur b
ques tions</w>
de formable</w>
targe ts</w>
sol ved</w>
ste ps</w>
percep tro
emplo yed</w>
inde x</w>
fac ts</w>
w al
sym metric</w>
pow er
hash ing</w>
posi tions</w>
iz ations</w>
imp ul
contro ll
w o
20 1
clo se</w>
bl ur
an ten
spa tio
scor ing</w>
methodo logy</w>
man ually</w>
ex hi
wat er
reg ular</w>
re ad
parti ally</w>
quantit ative</w>
hierarch y</w>
easi ly</w>
il l
medi a</w>
loc ally</w>
influ ence</w>
defin e</w>
canon ical</w>
t on</w>
show ing</w>
roo m</w>
heur istics</w>
e red</w>
dev ices</w>
vo ting</w>
in her
sca les</w>
optim ized</w>
m l</w>
determin ed</w>
co ded</w>
co ar
recor ded</w>
guarante es</w>
en velo
pre ferences</w>
morpho logical</w>
frequ encies</w>
ac tivities</w>
sing le-
gre at
e pi
tru e</w>
stre ams</w>
selec tive</w>
posteri ori</w>
correl ations</w>
con fir
coher ence</w>
require ments</w>
imp act</w>
i ent</w>
fal se</w>
compar ing</w>
1 .
phr ases</w>
fin al</w>
diver sity</w>
bas es</w>
show ed</w>
meas ured</w>
fo re
extrac ting</w>
f l
discrimin ation</w>
a ware</w>
t le</w>
il i
cur ves</w>
scenari o</w>
ati ves</w>
war ping</w>
do min
repres ent
voic ed</w>
tak ing</w>
str a
re port</w>
procedu res</w>
incorpor ating</w>
emo tional</w>
common ly</w>
ular ly</w>
collabor ative</w>
investig ated</w>
m entations</w>
cooper ative</w>
sup por
pur su
introduc es</w>
predic tions</w>
or ity</w>
mon it
categor ization</w>
at temp
descrip tor</w>
sur ve
ext re
accur ately</w>
top ics</w>
reduc ing</w>
ext ensi
coher ent</w>
me e
vir tual</w>
polic ies</w>
med ical</w>
equ alization</w>
subjec t</w>
diffic ul
m c
formul ate</w>
ear s</w>
si cal</w>
ben e
approxima tions</w>
outli ers</w>
non- linear</w>
histo gram</w>
expan sion</w>
ari th
hetero geneous</w>
equ il
combin at
we ak</w>
le ad</w>
desi red</w>
ar ization</w>
fra g
buil t</w>
boo k</w>
asp ects</w>
wi k
po o
enti ties</w>
w ing</w>
cor rup
view point</w>
ro tation</w>
it e
hel p</w>
st ly</w>
ma x
ib ri
ex i
gi ves</w>
on o
key word</w>
equil ibri
de al</w>
produc es</w>
pat ch</w>
gri d</w>
incorpor ate</w>
construc ted</w>
ing ly</w>
acc ent</w>
abil ities</w>
partic ularly</w>
lo u
defin i
oper ations</w>
commun ity</w>
cap able</w>
trac k</w>
glot tal</w>
empir ically</w>
dynam ical</w>
ar ab
allow ing</w>
addres ses</w>
tur n</w>
provi ding</w>
co sts</w>
an cy</w>
trans forms</w>
embed dings</w>
pu bl
p ic</w>
i p</w>
degra d
cur ve</w>
blu r</w>
an d
n lp</w>
l lab
collec ted</w>
clo s
t ance</w>
spati ally</w>
ap h
sub band</w>
st ability</w>
power ful</w>
mathema tical</w>
expres sive</w>
s at</w>
cap ac
2 .
wor d
schedu ling</w>
mod er
learn s</w>
increas ing</w>
a ver
selec t</w>
op ini
de g
rad ar</w>
prac tice</w>
mechan isms</w>
str u
propo s
samp led</w>
cor e</w>
reg ret</w>
speec h
f ish
ex ec
ai m</w>
packe t</w>
cel l
form ant</w>
deg ree</w>
dat a-
g ate</w>
explo its</w>
enc h</w>
e m
writ ten</w>
up per</w>
deci sions</w>
re stor
mess age</w>
ma g
dimensi ons</w>
aim s</w>
l ms</w>
fo reg
ch ec
publ ic</w>
sy llab
repres enting</w>
neuron s</w>
in si
combinat orial</w>
al ge
tak es</w>
radi o</w>
shi f
speak ing</w>
mr i</w>
l it
y ears</w>
sp an
manag ement</w>
h ic
comple tion</w>
intelligib ility</w>
en coder</w>
pre ference</w>
lar ger</w>
e ar</w>
vi si
ve hic
tic es</w>
in spi
up on</w>
pre -
g ains</w>
formul ated</w>
is ed</w>
need ed</w>
fi es</w>
arab ic</w>
compres sive</w>
t -based</w>
s h</w>
plan ar</w>
g ation</w>
evo lution</w>
d s
b el
su s</w>
produc ed</w>
in puts</w>
tun ing</w>
tion ed</w>
fish er</w>
oper ators</w>
cel er
b ed</w>
gener ally</w>
fron t</w>
d ou
valid ation</w>
overl apping</w>
inspi red</w>
topo logy</w>
satis fac
po st</w>
m enting</w>
implic it</w>
challen ges</w>
be come</w>
i -
t ting</w>
sali ent</w>
pl at
move ments</w>
ed s</w>
distan ces</w>
sug ge
proto co
na mely</w>
induc tion</w>
audi o
architec tures</w>
ambigu ity</w>
- of-
uni vers
re ading</w>
assign ment</w>
arra ys</w>
r a</w>
cat en
bat ch</w>
inte res
f ect</w>
tu ally</w>
asympto tic</w>
z z
occlu sions</w>
h al
gra ined</w>
rel atively</w>
pen al
mag ne
str ing</w>
se u
ligh ting</w>
re ward</w>
h in
ge t</w>
dia lec
asse ss
r g
p el
minim izing</w>
equival ent</w>
ch il
au ro
lo ss
effor t</w>
bot to
p ed
contex ts</w>
mf cc</w>
equ ations</w>
w n
vis u
p seu
f ut
co verage</w>
mo us</w>
disambigu ation</w>
sp her
diver se</w>
sm alle
controll ed</w>
lo t</w>
fr ench</w>
c ar</w>
ac celer
spec tro
recogn izing</w>
y -based</w>
tex tual</w>
follow ing</w>
psy cho
eng ine
minim ize</w>
ic a</w>
fut ure</w>
communic ations</w>
subjec ts</w>
foreg round</w>
end er</w>
cap tured</w>
b le
1 0
igh t</w>
equ ation</w>
configur ation</w>
sel f-
dig it</w>
coordin ate</w>
v iter
p -
mar king</w>
f as
are as</w>
a ural</w>
who le</w>
tr uth</w>
m app
vo wel
tak en</w>
se e
ll r</w>
con caten
m al
ab sol
e ec
d b</w>
d one</w>
tim it</w>
reco ver</w>
nar ro
f re
ey e</w>
eng ine</w>
d ro
comple mentary</w>
capac ity</w>
ord ers</w>
ju d
fer ring</w>
grou ping</w>
exp ensive</w>
cu t</w>
contain ing</w>
consid ering</w>
optim um</w>
l ic</w>
inter -
enhan ced</w>
e as
boo t
associ ation</w>
synthe sized</w>
sub traction</w>
sp ite</w>
de formation</w>
st ory</w>
par se</w>
gib bs</w>
contex t-
viter bi</w>
p ed</w>
el imin
super vision</w>
si l
sh aring</w>
neighb or
lap lac
inte ger</w>
coupl ed</w>
ban ks</w>
absol ute</w>
wo uld</w>
tim ing</w>
sup er</w>
projec tions</w>
b its</w>
u i
id al</w>
equ al</w>
tag s</w>
squ ared</w>
pro xim
parti tion</w>
l t
impul se</w>
at tac
pa ths</w>
man n</w>
l ling</w>
ex tern
emplo y</w>
ben ef
ari ly</w>
st ron
perceptro n</w>
mu sical</w>
- temporal</w>
pursu it</w>
pri v
occurr ence</w>
s l
on e-
inclu des</w>
ad ju
ur ing</w>
ensi ties</w>
w ri
st ar
in finite</w>
fac il
univers al</w>
t ations</w>
descrip tions</w>
2 -
oper ation</w>
typ ical</w>
s ors</w>
d m</w>
bench marks</w>
re -
en able</w>
assess ment</w>
c nn</w>
separ ate</w>
recommend ation</w>
mix ing</w>
f ading</w>
analy tical</w>
n as
high- dimensional</w>
degrad ation</w>
natur ally</w>
m llr</w>
fas hi
benef its</w>
me mb
exc itation</w>
combin ations</w>
assu me</w>
te x</w>
medi ate</w>
m c</w>
k ers</w>
distin gu
ad o
multi variate</w>
mod ule</w>
do wn
wave form</w>
monit oring</w>
me l</w>
en for
yiel d</w>
p ic
main tain
foc used</w>
arri val</w>
selec ting</w>
recei ved</w>
ee g</w>
de cre
lik ely</w>
le ver
is ol
carri ed</w>
a ir
tex t-
pi pel
h mm
ent ally</w>
vowel s</w>
us o
reverber ant</w>
m t</w>
i ve</w>
explor ation</w>
b ran
audio visual</w>
t ness</w>
p s
magne tic</w>
centr al</w>
cancel lation</w>
loo p</w>
loc al
bo ard</w>
whe re
mis match</w>
fashi on</w>
syn ta
reg ar
ex tr
eas y</w>
e str
an im
ag re
wik ip
succ ess</w>
ra w</w>
na vi
match es</w>
induc ed</w>
clut ter</w>
sol vers</w>
proces sor</w>
f ail
be fore</w>
smooth ness</w>
serv ice</w>
n ed</w>
mar ginal</w>
cu mul
artic ulation</w>
analo g</w>
situ ations</w>
le ts</w>
surve ill
surveill ance</w>
cap ability</w>
/ i</w>
lit tle</w>
ad j
integr ating</w>
h ence</w>
st ress</w>
spectr a</w>
res on
b ur
activ ation</w>
mo tions</w>
fol ds</w>
coun ter
c le</w>
3 .
ex emp
en -
depend s</w>
reso l
detec ted</w>
aug mented</w>
sin uso
seg mental</w>
per ce
inter nal</w>
int ui
i ds</w>
ang le</w>
wri ting</w>
wikip edia</w>
bot t
invol ves</w>
extern al</w>
spi ke</w>
re h
random ized</w>
parti tioning</w>
no tion</w>
in f
discus sed</w>
cons on
facil it
con cer
un seen</w>
t ory</w>
synchron ous</w>
ped estr
log istic</w>
in stru
ve red</w>
g ly</w>
ur ity</w>
it ations</w>
independ ence</w>
se n</w>
p y
len ec
bott lenec
as ing</w>
applic able</w>
mono ton
equ al
compo sition</w>
-ran k</w>
wide band</w>
optim ize</w>
cho o
achiev ing</w>
optim izing</w>
oc cu
laplac ian</w>
and /
and/ or</w>
restor ation</w>
3 -d</w>
sp read</w>
pl ace</w>
pars ers</w>
g ery</w>
cent er</w>
ul arity</w>
t ability</w>
su ff
mo tor</w>
mat erial</w>
le ading</w>
fin ger
p rel
ite ms</w>
imple ment</w>
e very</w>
ble u</w>
transm it</w>
optim ality</w>
analyz ed</w>
altern ating</w>
proto type</w>
smalle r</w>
simil arities</w>
equilibri um</w>
demonstr ates</w>
all y-
tur ing</w>
n y
modi fication</w>
intelli gent</w>
de spite</w>
comp reh
syste matic</w>
sub spaces</w>
l da</w>
de -
co efficient</w>
analyz ing</w>
align ed</w>
2 0</w>
time- frequency</w>
symbo l</w>
md p</w>
direc tions</w>
prel imin
interes ting</w>
character ization</w>
anten na</w>
spati o</w>
mean ing</w>
at trac
asp ect</w>
success ful</w>
di spar
wh ite</w>
tim edia</w>
valid ate</w>
suppres sion</w>
h il
se s
reli es</w>
prelimin ary</w>
bal an
contrib u
seg mented</w>
multi channel</w>
end s</w>
piec e
op p
mer ging</w>
envelo pe</w>
produc ing</w>
bo x</w>
on d</w>
learn er</w>
prim ary</w>
f lic
en er</w>
phenomen a</w>
n- gram</w>
l m</w>
di arization</w>
coun ting</w>
code book</w>
ul tr
sc at
per turb
partic ip
p ast</w>
we b
time- varying</w>
multi user</w>
m f</w>
et c</w>
diagno sis</w>
speci fied</w>
sensi tivity</w>
scal ability</w>
om ic</w>
incre ases</w>
cre ate</w>
configur ations</w>
centr alized</w>
candi dates</w>
adap t</w>
ve loc
sh ado
propo si
exam ine</w>
ar ound</w>
19 9
-l ab
sec urity</w>
projec t</w>
over come</w>
md ps</w>
ir d</w>
indivi du
fr ac
algorith mic</w>
sho t</w>
po sed</w>
le ar</w>
ex t</w>
argu ment</w>
- level</w>
cel l</w>
-li ke</w>
sym metry</w>
mul timedia</w>
mor ph
he aring</w>
co ders</w>
bi ased</w>
al most</w>
cl i
bottlenec k</w>
aut ono
succ es
mi d</w>
ac cep
pol ar</w>
mod alities</w>
lo ad</w>
invol ving</w>
dat ed</w>
d f</w>
corrup ted</w>
o m</w>
multip le-
experim entally</w>
dev ice</w>
cr uc
au x
up dates</w>
spher ical</w>
rap id</w>
inter mediate</w>
instan taneous</w>
id entity</w>
behavi ors</w>
arti facts</w>
wi ener</w>
isol ated</w>
hand ling</w>
evalu ating</w>
con v
aux ili
w s
re jec
extend s</w>
comparis ons</w>
int on
informa tive</w>
exper i
trac ker</w>
templ ates</w>
contain s</w>
th re
cl ic</w>
human s</w>
cap abilities</w>
ou n</w>
model -based</w>
par aph
weak ly</w>
siz es</w>
secon d
mas king</w>
line arly</w>
fe a
en ab
stor age</w>
reconstruc ted</w>
bene fit</w>
volu me</w>
paraph r
increas ed</w>
distor tions</w>
curr ently</w>
move ment</w>
coar se</w>
auxili ary</w>
po s</w>
opini on</w>
ex plan
listen ing</w>
lac k</w>
intr a</w>
geo metr
fea sible</w>
of dm</w>
navi gation</w>
develop ing</w>
photo metric</w>
l y-
s at
gu i
gradi ents</w>
ess ential</w>
contribu tions</w>
con sum
character istic</w>
a- tion</w>
stimul i</w>
desi r
con tain</w>
throu gh
p c</w>
co reference</w>
wor d-
v ali
ske t
lis t</w>
ic k
ear ly</w>
be y
cons titu
plan s</w>
perce i
integr ate</w>
d nn</w>
cu e</w>
bey ond</w>
al one</w>
ad ver
util ize</w>
tree bank</w>
sub sequ
reflec tance</w>
piece wise</w>
ho o
ang ular</w>
s ine</w>
mil li
ra tio
l v
engine ering</w>
assu med</w>
repres ents</w>
pop ulation</w>
p u</w>
las so</w>
gene tic</w>
en h
distribu tional</w>
de l
pl ay</w>
learn ers</w>
coun ts</w>
n ers</w>
l ter</w>
difficul ty</w>
be am</w>
an d-
enh ance</w>
detail ed</w>
ul l
ni an</w>
mo du
initi alization</w>
in complete</w>
recor ding</w>
predic ted</w>
character ize</w>
sub modular</w>
rel ay</w>
dispar ity</w>
substanti al</w>
sp l
lim itations</w>
st ate-
hor iz
fic ations</w>
desir able</w>
de lay
cs r</w>
casc ade</w>
synta x</w>
sol ver</w>
pr int</w>
non negative</w>
inver sion</w>
formal ism</w>
perio dic</w>
inter net</w>
g o</w>
fa ult</w>
defini tion</w>
ban ds</w>
symbo lic</w>
refin ement</w>
glob ally</w>
sear ch
pers onal</w>
onto logy</w>
bio logical</w>
be comes</w>
uni que</w>
mean ing
blur ring</w>
agre ement</w>
swit ch
fil e</w>
spatio -temporal</w>
ratio s</w>
human -
gu ided</w>
cruc ial</w>
ci al</w>
ba g</w>
wa ve</w>
satisfac tion</w>
poo ling</w>
or al</w>
neighbor hood</w>
need s</w>
micro phones</w>
di i
reg ressive</w>
re n</w>
pas sing</w>
p ati
ima gery</w>
ha ving</w>
diction aries</w>
connec tions</w>
autono mous</w>
estab lished</w>
emplo ying</w>
classi fying</w>
c ally</w>
transl ations</w>
stu d
po is
plat form</w>
n p</w>
fi r</w>
determin ing</w>
dep lo
redund ancy</w>
ber t</w>
synchron ization</w>
sens ory</w>
ri ght</w>
mm se</w>
mee ting</w>
tac k
penal ty</w>
mas k</w>
al ways</w>
ac tual</w>
ru n</w>
listen ers</w>
fi er</w>
enti re</w>
substanti ally</w>
projec tive</w>
low -rank</w>
lat ter</w>
modu les</w>
fu zz
cur v
con clu
b ag
me ta
introduc ing</w>
inter faces</w>
bloc ks</w>
ach ing</w>
us age</w>
n ext</w>
maxim izing</w>
threshol ding</w>
investig ates</w>
ar m</w>
alge bra
sign al-
multi- view</w>
mp e
mani folds</w>
log ics</w>
log ically</w>
transcrip tions</w>
pub lic
inher ent</w>
f av
consi sting</w>
com ing</w>
vehic le</w>
pe ak</w>
nam e</w>
cu sto
collec tions</w>
avo id</w>
articul ated</w>
t ts</w>
shi p</w>
independ ently</w>
theore m</w>
ste red</w>
scri p
s tit
g ender</w>
exper ts</w>
d ma</w>
mod ality</w>
distin ct</w>
run ning</w>
ra o</w>
d ren</w>
l st
exis t</w>
dist ant</w>
co sine</w>
represent ative</w>
observ able</w>
no i
mode s</w>
lim it</w>
gre at</w>
de formations</w>
syn ap
si vely</w>
qu ite</w>
gaus si
fi ability</w>
enti als</w>
e ts</w>
depend ence</w>
off ers</w>
grap he
o ms</w>
ima x</w>
ga p</w>
exec ution</w>
cap tures</w>
r end
lou d
follow ed</w>
environ mental</w>
composi tional</w>
comm er
seg ment
s mar
pro por
multi path</w>
meaning ful</w>
lv csr</w>
spac e-
r -
ac ies</w>
tri es</w>
tra f
ta x
sinuso idal</w>
r hy
hmm -based</w>
dou ble</w>
di se
transi tions</w>
pers on
homo geneous</w>
convers ation</w>
5 0</w>
sci ence</w>
remo val</w>
mo vi
it self</w>
gener ates</w>
addi tionally</w>
un constrained</w>
di t</w>
chil dren</w>
at t
traf fic</w>
proposi tional</w>
pois son</w>
monoton ic</w>
lo red</w>
fuzz y</w>
eng ths</w>
p lex
fi les</w>
consid ers</w>
chan ging</w>
analy ses</w>
situ ation</w>
mar gin
indo or</w>
beamform er</w>
veloc ity</w>
sur ro
s or
lin ks</w>
iso tro
incorpor ates</w>
asy m
align ments</w>
al ph
addres sed</w>
v ation</w>
on- line</w>
ne l
is tically</w>
has h</w>
windo ws</w>
stre am
prim i
land mark</w>
a de
go als</w>
b ly</w>
tempor ally</w>
techno logies</w>
super -
speak er-
percei ved</w>
loc alized</w>
exper t</w>
exhi bit</w>
symbo ls</w>
sear ching</w>
enco ur
emplo ys</w>
construc ting</w>
mc mc</w>
hil bert</w>
en s</w>
th ers</w>
su mp
pro of</w>
multi class</w>
fo rest</w>
estab lish</w>
e -based</w>
de convolution</w>
cho sen</w>
- time</w>
sing ular</w>
s on
great ly</w>
consist ently</w>
where as</w>
re ordering</w>
princip les</w>
li es</w>
j ust</w>
dii er
d ensities</w>
ain ed</w>
ta g</w>
lat tices</w>
ds p</w>
do a</w>
cro s
connec tion</w>
con junc
code c</w>
asy n
trans formed</w>
norm al
man nian</w>
log -
in fer</w>
fac to
en ing</w>
rhy th
pro min
perform ances</w>
pedestr ian</w>
imple mentations</w>
fir st-
fi ve</w>
a di
sci enti
prop er</w>
min imax</w>
meas uring</w>
d r
clo u
algebra ic</w>
reson ance</w>
li er</w>
extensi ons</w>
de li
cu ts</w>
abstr action</w>
tra -
sump tion</w>
over la
mono lingual</w>
me sh</w>
le an</w>
con fusion</w>
ce -
ban dit</w>
w in
t v</w>
prec ise</w>
flexib ility</w>
ch ro
ap er
span ish</w>
go o
accur acies</w>
recogn ize</w>
reco vering</w>
re ma
pro te
n uc
multipl ic
exi st
transmit ted</w>
tra de
rema ins</w>
ma tically</w>
ga z
extre mely</w>
util izing</w>
phone mes</w>
general ize</w>
protoco l</w>
po or</w>
per fect</w>
moder n</w>
gu es</w>
ac ts</w>
abo ve</w>
0 00</w>
tion -based</w>
su ited</w>
guarante e</w>
form ing</w>
composi te</w>
bo unding</w>
basel ines</w>
swit ching</w>
pot entially</w>
maxim ize</w>
b ar
po lar
ho l
di vision</w>
cap turing</w>
a p</w>
5 .
p ulation</w>
explo ited</w>
aggreg ation</w>
ad ding</w>
si ft</w>
iter ations</w>
comput ations</w>
ton gue</w>
t an
mono cular</w>
edu c
co lu
an ch
water marking</w>
tr ade</w>
stron gly</w>
pot entials</w>
mani pulation</w>
ish ing</w>
fil ter
en ough</w>
data- driven</w>
crow d
ultr as
te ly</w>
statis tically</w>
st ment</w>
o thers</w>
inter pol
st ages</w>
cl in
asyn chron
-l ay
pre processing</w>
hoo ds</w>
semi definite</w>
r al</w>
aver aging</w>
amoun ts</w>
6 .
2 -d</w>
r o</w>
obtain ing</w>
gramma tical</w>
4 .
wor k
wat er</w>
ver sions</w>
na ive</w>
intelli gence</w>
identi fied</w>
er al</w>
enco ded</w>
coupl ing</w>
boo st</w>
boo lean</w>
the ories</w>
reli ability</w>
p an
expres sed</w>
clos ed-
bo lt
ad ed</w>
serv ices</w>
propos al</w>
le ft</w>
fin it
distin c
cre ated</w>
ac comp
synthe siz
oper ating</w>
compar ative</w>
t i</w>
py ra
l s
fi g
ase -based</w>
sur pr
scal ar</w>
re plac
n oun</w>
mapp ings</w>
lif e</w>
kin ds</w>
ed ness</w>
balan ced</w>
tex tures</w>
ri e
over head</w>
do or</w>
diag ra
botto m</w>
ac tly</w>
ver b
ure -
ul l</w>
str ength</w>
s low</w>
requir ing</w>
overla p</w>
or dered</w>
ca used</w>
affec t</w>
transcri bed</w>
syllab les</w>
r in
log arith
in variance</w>
ele ment</w>
dynam ically</w>
ation -
too l
robo ts</w>
assu ming</w>
sm t</w>
sc an
narro w
k age</w>
acqui red</w>
v l
post -
play er</w>
nois es</w>
iter atively</w>
isotro pic</w>
us ti
stre et</w>
signal- to-
quantiz ed</w>
per plex
imp er
back ward</w>
proxim al</w>
it em</w>
bolt z
ar gue</w>
occu r</w>
en tic
word net</w>
multi dimensional</w>
mr f</w>
mi ght</w>
detail s</w>
collec tive</w>
carri er</w>
bro ad</w>
approxim ately</w>
adop ted</w>
pul se</w>
mal e</w>
g ab
d i</w>
pas cal</w>
colu m
ur b
ide as</w>
ambigu ous</w>
is es</w>
inton ation</w>
gui de</w>
comp ati
there by</w>
th ird</w>
sugge sts</w>
phon ological</w>
multi scale</w>
artic le</w>
redund ant</w>
qu ick
ing -
con sen
con centr
veri fy</w>
tur ns</w>
s r
curv ature</w>
consen sus</w>
3 0</w>
transmit ter</w>
sv ms</w>
stream ing</w>
seman tically</w>
read y</w>
or ac
guarante ed</w>
formul as</w>
ent -
boot str
ag ed</w>
7 .
st op
h am
explo red</w>
doma in-
s m</w>
rg b</w>
design ing</w>
cor tex</w>
app ed</w>
tre at
tr y</w>
loss less</w>
lo s
ker nel
foc uses</w>
ent ail
dis continu
confir m</w>
co ver</w>
y o
v als</w>
summ ary</w>
public ly</w>
inter val</w>
h ou
crowd sour
cel ls</w>
boltz mann</w>
at ures</w>
-lay er</w>
ac ting</w>
w all</w>
so me
pl ed</w>
o sc
ne ts</w>
connec tivity</w>
cell ular</w>
reve al</w>
geo desi
cr f</w>
au to</w>
ver b</w>
simpli fied</w>
recogn izers</w>
radi al</w>
n mf</w>
main ly</w>
gro und
disco ver</w>
crow d</w>
abo o
recogn ized</w>
artic les</w>
t orial</w>
pub lished</w>
maintain ing</w>
li t</w>
l ar</w>
en code</w>
tiz ation</w>
sh rin
parameter ized</w>
invol ved</w>
depend ing</w>
cle ar</w>
character ized</w>
-lab el</w>
simp ler</w>
repe ti
p ure</w>
ic k</w>
ic an</w>
frag ments</w>
equival ence</w>
end ed</w>
ation -based</w>
tri vi
pho to</w>
iz a</w>
demonstr ating</w>
y n
predic tor</w>
fav or
coordin ation</w>
topo logical</w>
tion ary</w>
theore tically</w>
new ton</w>
integr ates</w>
de vi
cen tric</w>
pro file</w>
off line</w>
le x</w>
incorpor ated</w>
diag onal</w>
d ge</w>
aper ture</w>
require ment</w>
o wn</w>
no w</w>
m al</w>
gen e</w>
deriv ation</w>
sh ar
sen ess</w>
pseu do</w>
numb ers</w>
l ast</w>
gest ure</w>
st and</w>
sh ading</w>
proces sed</w>
max -
first- order</w>
ev ol
determin ation</w>
con flic
comp il
vo ices</w>
to k
spl itting</w>
sh are</w>
p reco
ne sted</w>
maxim al</w>
graph ics</w>
d p</w>
classi fy</w>
star ting</w>
qu as
pipel ine</w>
on y
loc ality</w>
deta il</w>
separ ately</w>
perplex ity</w>
minim a</w>
me tic</w>
chec king</w>
applic ability</w>
al ready</w>
ag e-
t wit
spo tting</w>
set up</w>
rie mannian</w>
non- negative</w>
l ag
j usti
epi polar</w>
emp ha
comple tely</w>
bin aural</w>
view ed</w>
stand ar
sing ing</w>
seg menting</w>
phon o
inte re
hi story</w>
consider able</w>
back -
adju stment</w>
ad vers
ad v
sec tion</w>
pl au
natur al
low- dimensional</w>
ho c</w>
s tic</w>
plan es</w>
obser ve</w>
li sts</w>
k it</w>
fo cal</w>
fin dings</w>
fa il</w>
wor king</w>
to o</w>
succes sive</w>
lo op
l er
dise ase</w>
dialo gues</w>
coordin ates</w>
1 5</w>
u n</w>
text- to-
roo t</w>
li p</w>
histo grams</w>
fl at</w>
e mer
cir cular</w>
p ut
opp ler</w>
m er</w>
lon g-
ine ar</w>
d oppler</w>
calibr ated</w>
behavi our</w>
auto regressive</w>
prog ress</w>
ic ity</w>
h t
el l
d r</w>
cy clic</w>
cre ating</w>
auro ra
ak e</w>
ad aboo
top -
le -based</w>
emo tions</w>
con stan
label led</w>
attemp t</w>
asse s
analy tic</w>
ti an</w>
si on-
s .</w>
p a</w>
out door</w>
om y</w>
mi d
in ser
high er-
fin e-
facto red</w>
ear lier</w>
de gre
d a
convers ations</w>
con sumption</w>
clo sely</w>
advan ces</w>
tre e-
through put</w>
s li
ro les</w>
quas i</w>
pro tec
non- rigid</w>
m y</w>
in struc
high- level</w>
frame works</w>
dialec t</w>
de m
de centralized</w>
c ent</w>
bu d
wor st</w>
multip lex
hou et
dig its</w>
ali an</w>
mi r
line arity</w>
ga it</w>
d ating</w>
con tribut
ca re
bre ak
1 2</w>
tr al</w>
sto red</w>
sil houet
scienti fic</w>
re views</w>
me n</w>
in ten
in ity</w>
in ferring</w>
formul a</w>
enc y-
e ffic
twit ter</w>
to ler
ra tional</w>
n ns</w>
lea st-
l am
k ull
gab or</w>
experi ence</w>
differ enti
di s</w>
ch un
argu ments</w>
suff er</w>
on to</w>
non- parametric</w>
modul ated</w>
induc tive</w>
de reverberation</w>
visu alization</w>
vi sible</w>
rec ti
r st</w>
parame tr
multi- class</w>
loo k</w>
kin d</w>
sh allow</w>
plan ner</w>
ne arly</w>
ide al</w>
gh ts</w>
er ship</w>
d ay</w>
concep tual</w>
c lear
wh o</w>
tri g
projec ted</w>
princi pled</w>
p es</w>
is tic
d ct</w>
c ulation</w>
arith metic</w>
ade qu
util ized</w>
trivi al</w>
spe edu
physi ological</w>
fi ers</w>
enc e-
con ju
util izes</w>
tion ality</w>
switch board</w>
rou ting</w>
introduc tion</w>
id ly</w>
extend ing</w>
asynchron ous</w>
ambigu ities</w>
altern atives</w>
-r ate</w>
quick ly</w>
fic i
el ing</w>
el ic
degra ded</w>
tack le</w>
sp here</w>
lst m</w>
finit e-
compo sed</w>
clin ical</w>
appl ies</w>
re search
random ly</w>
outli er</w>
mani pul
low- level</w>
lex ic
fo o
domin ant</w>
cor tical</w>
c les</w>
sym metr
possi bly</w>
off er</w>
narrow band</w>
d ut
d in
c ut
app ear</w>
sty les</w>
land marks</w>
in tractable</w>
gaussi ans</w>
en tries</w>
correc tly</w>
c dma</w>
acqu ir
a ided</w>
ve -
rejec tion</w>
reg ul
rec ep
p ages</w>
n gs</w>
fe wer</w>
de aling</w>
a uc
q a</w>
graph -based</w>
de le
adj ac
up dating</w>
nam es</w>
ma il</w>
it ted</w>
f lo
effic acy</w>
cy cle</w>
con s</w>
bl ac
ad ded</w>
pyra mid</w>
pro ven</w>
priv acy</w>
out -of-
dra w
bal ance</w>
a ks</w>
sket ch</w>
orac le</w>
jud g
ing -based</w>
exist ence</w>
commer cial</w>
ang les</w>
thre e-
ten d</w>
recei vers</w>
mark et</w>
enab ling</w>
b ic</w>
suppor ts</w>
smar t</w>
satis fiability</w>
reconstruc t</w>
h z</w>
ful ness</w>
an om
2 6
multi- task</w>
hand -
onto logies</w>
nas h</w>
fi x</w>
equal izer</w>
de als</w>
auto mat
auro ra</w>
attemp ts</w>
a id</w>
1 1</w>
0 -
ti ght</w>
neighb oring</w>
ne ar-
gr an
gaz e</w>
f mri</w>
evo lu
eec ient</w>
cra f
b er</w>
answ ers</w>
ske le
mir ro
gest ures</w>
9 .
1 00</w>
-li k
st art</w>
re view</w>
pur poses</w>
p us
increas ingly</w>
in tra-
hand written</w>
de c
tool kit</w>
sp lit</w>
pronunci ations</w>
no un
investig ation</w>
bootstr apping</w>
approxim ated</w>
-lik eli
trac ks</w>
statis tic</w>
space- time</w>
re vision</w>
propos als</w>
me ta</w>
logarith mic</w>
li br
le ib
for ensi
clut tered</w>
8 .
view ing</w>
t ural</w>
second ary</w>
samp ler</w>
s er</w>
reduc tions</w>
r y</w>
lever aging</w>
in ferred</w>
geodesi c</w>
under stand</w>
signal-to- noise</w>
re alization</w>
rati ngs</w>
o ov</w>
mi ti
leib ler</w>
fe asi
ex actly</w>
degre es</w>
alle vi
speci fication</w>
reli ably</w>
por t
phenomen on</w>
log s</w>
gro wing</w>
ent -based</w>
cal culation</w>
c rimin
text-to- speech</w>
spectro gram</w>
sp or
seg mentations</w>
m in</w>
f e</w>
charac ters</w>
calcul us</w>
adaboo st</w>
wave forms</w>
vo c</w>
reason able</w>
pl us</w>
m lp</w>
dra wn</w>
comp ares</w>
adap ting</w>
vl si</w>
vari ances</w>
v s.</w>
sv d</w>
prote in</w>
neighb ors</w>
inter vals</w>
in ess</w>
great er</w>
ex cell
circu it</w>
x -
sub optimal</w>
stra igh
multi -label</w>
jo ur
insi ghts</w>
f low
end ing</w>
tran spar
so ph
ses sion</w>
n n
inter fer
ge -based</w>
for tun
dut ch</w>
condi tioned</w>
ar ise</w>
stimul us</w>
separ able</w>
r t
per m
le verage</w>
b und
ultras ound</w>
sub sets</w>
str ings</w>
multiplic ative</w>
lay out</w>
describ ing</w>
dep end</w>
co ali
bran ch</w>
advan ced</w>
wave lets</w>
transcrip ts</w>
se g</w>
pro v
peri od</w>
on ce</w>
non- stationary</w>
feasi bility</w>
excell ent</w>
evolu tionary</w>
entail ment</w>
calcul ated</w>
threshol ds</w>
pro ved</w>
formul ations</w>
diier ent</w>
closed- form</w>
an ne
200 7</w>
si gn</w>
s a</w>
ro t
objec tives</w>
fin ds</w>
expl ain</w>
entic ation</w>
de m</w>
de ca
consider ably</w>
t ut
research ers</w>
mpe g-
k l</w>
in fra
he al
fron t-
exi sts</w>
b m</w>
wal k</w>
sub stit
spar seness</w>
simp ly</w>
occlu ded</w>
noi se-
cs p</w>
clear ly</w>
cepstr um</w>
sugge sted</w>
par t-
lon ger</w>
i ii</w>
facilit ate</w>
c k</w>
b n</w>
an y
si tes</w>
si te</w>
ra y</w>
pro files</w>
on set</w>
morpho logy</w>
maj ority</w>
fortun ately</w>
aff inity</w>
a ur
optim ally</w>
neuro n</w>
is -
i ></w>
g p</w>
foc using</w>
conduc t</w>
, 000</w>
urb an</w>
neu tral</w>
minim izes</w>
mean -
contr as
attrac tive</w>
anch or</w>
tic ity</w>
rap idly</w>
n e</w>
invol ve</w>
hierarch ies</w>
craf ted</w>
c ation</w>
bil inear</w>
ad d</w>
-likeli hood</w>
superi ority</w>
man ds</w>
los ses</w>
lar ge
explo res</w>
c b-</w>
attac ks</w>
visi bility</w>
tex tured</w>
reg im
mul tic
memb ership</w>
lin king</w>
lim itation</w>
casc aded</w>
vo x
straigh t
rg b
reas on</w>
phon ic</w>
pas sive</w>
mess ages</w>
l ters</w>
id en
i ers</w>
frequ ency-
d l</w>
correspon d</w>
compe ting</w>
amer ican</w>
adop t</w>
zer o-
un voiced</w>
te am</w>
separ ating</w>
organ ization</w>
multi layer</w>
he art</w>
g en</w>
bi om
tal king</w>
tal k</w>
re main
qu asi
multi agent</w>
lexi cons</w>
k ore
geometr ical</w>
frac tional</w>
for ce</w>
v ity</w>
un fortunately</w>
sign ature</w>
sco pe</w>
regular izer</w>
natural ness</w>
mul tit
fo und
d- order</w>
ch e
att ach
tan dem</w>
synap tic</w>
sco pic</w>
inter ven
ff t</w>
conju gate</w>
asse ss</w>
20 10</w>
ti gh
th -
remo ve</w>
oc cur
non stationary</w>
j pe
ha us
eu ro
enc ing</w>
dur ations</w>
m l
large ly</w>
hyper spectral</w>
gu age</w>
frequ ently</w>
finger prin
de fault</w>
beli ef
b lo
pseu do
mo s</w>
l r</w>
es si
de blurring</w>
con sequ
ain ing</w>
w th</w>
tech n
short -
sever e</w>
regar ding</w>
ligh tly</w>
li ve</w>
itu des</w>
intui tive</w>
inde ed</w>
fore i
comp lic
ch ip</w>
a c</w>
phr ase-based</w>
percep tually</w>
milli on</w>
hal f</w>
at oms</w>
adap tively</w>
ab s
voic ing</w>
use fulness</w>
tax on
t ab
prog ressive</w>
po le</w>
n or</w>
fil tered</w>
enco ders</w>
disp lay</w>
conver ge</w>
clu stered</w>
tr unc
tiz ed</w>
multi- agent</w>
li e</w>
jour nal</w>
design s</w>
cross- lingual</w>
cho ices</w>
1 6</w>
th ing</w>
t onal</w>
subsequ ent</w>
s w
s lo
possi bility</w>
no ve
he ad
cre ation</w>
classifi ed</w>
sp line</w>
sc re
reg res
loc k</w>
lim its</w>
integr al</w>
f 1</w>
ext ent</w>
el d</w>
bil istic</w>
bi directional</w>
us er-
transi ent</w>
summ aries</w>
po mdp</w>
per mut
particip ants</w>
p ain
model -
medi um</w>
m us
kore an</w>
exam ined</w>
behavi oral</w>
l 2</w>
key words</w>
crowdsour cing</w>
compo und</w>
competi tion</w>
x es</w>
uncer tain</w>
sen ses</w>
ri c</w>
rend ering</w>
nuc lear</w>
la w</w>
inclu ded</w>
all -
affec ted</w>
-l an
vali dated</w>
stra p</w>
si des</w>
perturb ation</w>
n ational</w>
conver ges</w>
ch ains</w>
uni ties</w>
plau sible</w>
mo sa
mat eri
i ous</w>
elli p
co lored</w>
a e</w>
yiel ding</w>
w ed</w>
shap ing</w>
polar ity</w>
medi an</w>
l ler</w>
general izes</w>
ex clu
eng ines</w>
conson ants</w>
trade off</w>
tho us
sug g
sign atures</w>
si x</w>
ran ging</w>
pred e
person alized</w>
lec ture</w>
lat ency</w>
l a</w>
disp lac
consum ing</w>
comput es</w>
ca use</w>
u m
fil ling</w>
correc ting</w>
c a</w>
c -
botto m-
to ward</w>
shif ts</w>
robust ly</w>
repor ts</w>
par ty</w>
of- speech</w>
noun s</w>
multi- modal</w>
extr a</w>
distingu ish</w>
con ce
al arm</w>
qu o
preser ve</w>
ori gin
m v
horiz on</w>
effor ts</w>
delay s</w>
con c
compens ated</w>
cl a
robo tic</w>
reco vered</w>
out per</w>
gam ma</w>
form er</w>
foo t
fine- grained</w>
a head</w>
volu metric</w>
blur red</w>
ac cumul
treat ment</w>
ser ve</w>
separ ated</w>
off s</w>
numer ous</w>
multiplex ing</w>
ho ld</w>
hel ps</w>
discontinu ities</w>
difficul ties</w>
conv ex
bottom- up</w>
boo ks</w>
belief s</w>
transduc er</w>
ton es</w>
techn ical</w>
ste ad
reconstruc ting</w>
protoco ls</w>
predic ate</w>
pre v
ne go
nego ti
gr as
eigen value</w>
d ft</w>
compreh ensive</w>
c ity</w>
br a</w>
ber tian</w>
b y-
w il
tun ed</w>
t d</w>
straight forward</w>
st ation</w>
st at
qu er
p age</w>
movi e</w>
m ma
m ise</w>
i g
hi stor
forei gn</w>
-lan guage</w>
stud ent</w>
res cor
perio dic
ke e
fr action</w>
exemp lar
ens ure</w>
ax is</w>
ax i
ar c</w>
ver sus</w>
ut es</w>
uni form
to mo
tag ged</w>
s ac
p ping</w>
lingu istically</w>
individu als</w>
id ance</w>
h und
explor ing</w>
electro n
consequ ently</w>
vis ually</w>
smooth ed</w>
produc ts</w>
k- means</w>
in no
finger print</w>
co pe</w>
choo se</w>
ch -
auto -
ro ad</w>
p ay
least- squares</w>
lay ered</w>
impo sed</w>
en coun
bro w
boot strap</w>
boo sted</w>
al ibr
twe ets</w>
speedu p</w>
simp lic
s ure</w>
po int
pen n</w>
int ended</w>
constitu ent</w>
confir med</w>
asym metric</w>
approxima ting</w>
analo g
an ds</w>
al e</w>
t ang
surpr is
spec ular</w>
part- of-speech</w>
pan or
oper ate</w>
on -based</w>
multi view</w>
mo ments</w>
inter lea
in du
graphe me</w>
fron tal</w>
equ ip
encour aging</w>
ed ing</w>
context- dependent</w>
ten sors</w>
shrin kage</w>
restric tions</w>
proces sors</w>
pro mo
predic tors</w>
nove l
insi ght</w>
go ing</w>
front- end</w>
decre ase</w>
adver se</w>
stac ked</w>
n as</w>
me -
likeli hoods</w>
l 1</w>
hel d</w>
he av
fore sts</w>
de cl
bud get</w>
b p</w>
an isotropic</w>
3 -
vi ol
tas k-
shado w</w>
mo d</w>
ha d</w>
h .</w>
explan ation</w>
exemp lar</w>
c z
auto correlation</w>
assi sted</w>
al ed</w>
acc ented</w>
8 0</w>
1- norm</w>
wel l-
verb al</w>
re ferred</w>
posteri ors</w>
mis sions</w>
mark ers</w>
in ation</w>
f used</w>
f ec
e con
transl ated</w>
nomi al</w>
it alian</w>
int ensive</w>
indu str
condi tioning</w>
clou d</w>
acous tics</w>
-l cb-</w>
valid ity</w>
us ual</w>
uni ver
u t</w>
tr ust</w>
re tain
play ers</w>
n es
loc ated</w>
ir relevant</w>
el s</w>
decompo si
assu mes</w>
tri ang
ti s
reflec tion</w>
r ating</w>
pati ents</w>
in k</w>
g ers</w>
bo xes</w>
analy tically</w>
acceler ated</w>
short- term</w>
p ure
it ary</w>
consider ation</w>
co ch
c f
view points</w>
scat tering</w>
run time</w>
rescor ing</w>
quasi -
po mdps</w>
pe an</w>
multi linear</w>
mis matched</w>
fig ure</w>
ec h</w>
contras tive</w>
b all</w>
ari al</w>
unc alibr
soph istic
sh or
r nn</w>
pl ays</w>
mo ve</w>
loss y</w>
illustr ated</w>
fol low</w>
ed it</w>
dri ving</w>
contro ller</w>
cont ents</w>
con ca
cel p</w>
bund le</w>
a o
v ary</w>
sp s</w>
ran k
osc il
l ers</w>
intere sted</w>
distor ted</w>
dis junc
dem and</w>
break ing</w>
avo ids</w>
ul ts</w>
transduc ers</w>
ta il
ta i
strate g
priv ate</w>
fail ure</w>
ex change</w>
b or
as k</w>
ar med</w>
s lightly</w>
run s</w>
refin ed</w>
pl ic
exhi bits</w>
enhan cing</w>
conjunc tion</w>
comm and</w>
classi ication</w>
anne aling</w>
uncalibr ated</w>
stere o
sp an</w>
si g
s la
primi tives</w>
occurr ences</w>
modi fications</w>
judg ments</w>
implic itly</w>
iden tical</w>
ho urs</w>
g au
frag ment</w>
fam il
di o
concaten ation</w>
sec tions</w>
scal ed</w>
re tin
multi nomial</w>
modul us</w>
long- term</w>
l engths</w>
k ine
f p
estab lish
dis flu
comm it
circu its</w>
choo sing</w>
alge bra</w>
a ir</w>
st abil
spe lling</w>
remo ving</w>
r l</w>
quantiz er</w>
po or
over -
neuron al</w>
iz a-tion</w>
in ner</w>
ic ing</w>
electron ic</w>
detec tions</w>
complic ated</w>
classi c</w>
an at
th on
sli ding</w>
repe ated</w>
relax ed</w>
re producing</w>
promin ence</w>
initi al
induc ing</w>
el astic</w>
bi an</w>
anten nas</w>
un structured</w>
un biased</w>
top- down</w>
surpris ingly</w>
reve als</w>
plan ners</w>
no t
mo stly</w>
min al</w>
libr ary</w>
disco vering</w>
cr fs</w>
convolu tive</w>
compens ate</w>
bio metric</w>
200 8</w>
un g</w>
ter -
sol ves</w>
on ic</w>
ground ed</w>
counter part</w>
b ing</w>
6 0</w>
4 0</w>
200 6</w>
transduc tive</w>
se ed</w>
s av
rou gh
re mark
re ach</w>
r im
n er
materi als</w>
indic ates</w>
imper fect</w>
flow s</w>
fir stly</w>
del ity</w>
anom al
2 5</w>
ta tion-
spatio temporal</w>
resol ve</w>
ran k-
pure ly</w>
nor ms</w>
non- native</w>
instru ment</w>
frequ ent</w>
feed forward</w>
extrac ts</w>
edi ting</w>
dri ft</w>
cumul ative</w>
allow ed</w>
advers arial</w>
adjac ent</w>
- wise</w>
ven ess</w>
satis fy</w>
protec tion</w>
pro mise</w>
p ancy</w>
learn t</w>
c er</w>
automat a</w>
ar ran
appear s</w>
super- resolution</w>
sub word</w>
pi lot</w>
optim isation</w>
o w</w>
novel ty</w>
mee tings</w>
extre me</w>
deriv atives</w>
continu ity</w>
wh i
vec tor
un directed</w>
str i
parameter ization</w>
pa tho
ordin al</w>
occurr ing</w>
mas sive</w>
m r</w>
histor ical</w>
g le</w>
euro pean</w>
deci sion-
correspon ds</w>
convex ity</w>
conson ant</w>
bloc king</w>
any time</w>
a erial</w>
the -
sophistic ated</w>
shado ws</w>
preci sely</w>
poor ly</w>
gen re</w>
favor ably</w>
f m</w>
ex cep
ed om</w>
dra matically</w>
biom ed
affec tive</w>
secon d-order</w>
pa use</w>
me l-
expres s</w>
enc e
deri ving</w>
conclu de</w>
co m</w>
at s</w>
tic -
substit ution</w>
stat us</w>
simplic ity</w>
selec ts</w>
pres entation</w>
mapp ed</w>
m ac
higher- order</w>
famil ies</w>
expon entially</w>
cra m
contribut e</w>
200 0</w>
v q</w>
transpar ent</w>
station arity</w>
reg ularity</w>
reconstruc tions</w>
moder ate</w>
mechan ical</w>
m ap
lin ked</w>
hand writing</w>
fo rec
filter bank</w>
envelo pes</w>
discrimin ating</w>
conver ted</w>
ay ing</w>
an -
abs ence</w>
subsequ ently</w>
rel ying</w>
re wards</w>
op en-
o o
mirro r</w>
loc ate</w>
in ci
g mm
fi delity</w>
elec tr
e mail</w>
c p</w>
arbitr arily</w>
allevi ate</w>
tu gu
suffici ently</w>
s ar</w>
over fitting</w>
l d
i gn
disc rim
defini tions</w>
cram é
concaten ative</w>
b us
assign ments</w>
assign ed</w>
acous tical</w>
ver bs</w>
tugu ese</w>
sav ings</w>
ro tations</w>
rel at
play ing</w>
no te</w>
le ss
le g
lar gest</w>
gi an</w>
g pu</w>
fa ir
elimin ation</w>
cy cles</w>
continu ous
car din
at trib
asympto tically</w>
amp li
adi ly</w>
4 -
tion ist</w>
ste mic</w>
some times</w>
shap ed</w>
rhyth m</w>
p hic</w>
non convex</w>
m s
lam bertian</w>
i gh</w>
f ly</w>
epi stemic</w>
del ta</w>
decompo sed</w>
de s
d er
colum n</w>
cla uses</w>
bi gram</w>
a x</w>
te aching</w>
syn ony
physi cs</w>
paralle l
morph e
inter acting</w>
fin ed</w>
enc ed</w>
ber g</w>
avail ability</w>
tr ace</w>
tok ens</w>
spi king</w>
op por
non- convex</w>
ne u</w>
narro w</w>
m se</w>
kernel -based</w>
jpe g</w>
interpre table</w>
harmon ics</w>
f f</w>
counter parts</w>
con serv
c i</w>
a vi
van ishing</w>
v t
st res
recommend er</w>
panor am
m p</w>
lif ting</w>
i v</w>
high est</w>
decomposi tions</w>
attac k</w>
un -
thous ands</w>
remain ing</w>
per -
oper ates</w>
mark ed</w>
lever ages</w>
ine quality</w>
in consistent</w>
i- vector</w>
ho me</w>
g a</w>
fre edom</w>
feat ure
dis -
co articulation</w>
at tain
a ma
201 2</w>
suppor ted</w>
spac ed</w>
ro w</w>
p le
p al
interpre ted</w>
fe ed</w>
diff use</w>
argu mentation</w>
1 /
quanti fy</w>
proper ly</w>
oppor tun
off set</w>
occur s</w>
lis m</w>
ib m</w>
ex haus
en se</w>
conca ve</w>
com mod
biomed ical</w>
be sides</w>
auth entication</w>
at omic</w>
aim ed</w>
water mark</w>
t ables</w>
signific ance</w>
s ar
reflec tions</w>
parti tions</w>
multi- scale</w>
mo ment</w>
fe male</w>
dis similarity</w>
deriv ative</w>
deplo y
c m
ar ises</w>
1 4</w>
trac kers</w>
ex ce
ele mentary</w>
eec i
discus sion</w>
decompo se</w>
cz ech</w>
con current</w>
clos ure</w>
buil ds</w>
bri dge</w>
b ed
app e
an n</w>
veri fied</w>
vehic les</w>
tang ent</w>
mf cc
knowl ed
follow s</w>
defin ing</w>
b -
up dated</w>
sk in</w>
seg reg
ri go
refin e</w>
proxim ity</w>
pro f
predic ts</w>
pe er</w>
partic les</w>
pa th
obtain s</w>
loo k
inv ent
i ans</w>
hu ge</w>
fr ic
fo li
ener gies</w>
co urse</w>
ambi ent</w>
ak es</w>
addres sing</w>
acc ents</w>
re alized</w>
pr ice</w>
por tuguese</w>
n d</w>
ic -
ess entially</w>
diagra ms</w>
ar ising</w>
uc tu
turb o</w>
trac ked</w>
stud ents</w>
schedu le</w>
s -based</w>
ra y
paraphr ases</w>
p d
o w
multi- channel</w>
ment ally</w>
loud speaker</w>
in correct</w>
con -
as ticity</w>
a der</w>
u ps</w>
st ate
s re</w>
re adily</w>
r en
r are</w>
preser ves</w>
mas ks</w>
l y
i ir</w>
h yp
gro wth</w>
descrip tive</w>
crimin ative</w>
uniform ly</w>
tit e</w>
str engths</w>
recei ve</w>
r ise</w>
prov ably</w>
pres sure</w>
mid d
forensi c</w>
ensemb les</w>
di an</w>
cl ause</w>
care fully</w>
1 3</w>
v s</w>
under water</w>
rou s</w>
remo te</w>
ran ked</w>
pe aks</w>
pati ent</w>
motiv ation</w>
interven tion</w>
h is</w>
extensi vely</w>
encoun tered</w>
an ce
a u</w>
200 5</w>
valu able</w>
two- stage</w>
tradi tionally</w>
suppor ting</w>
re visi
re ach
poly phonic</w>
meta data</w>
loc ating</w>
l pc</w>
in side</w>
identi fies</w>
gau s</w>
g lish</w>
end -to-
end-to- end</w>
discus ses</w>
discrimin atively</w>
calcul ate</w>
c entro
c amp
asse mb
wh y</w>
tran sp
speech -
re fer
norm als</w>
li d</w>
l l</w>
ge tting</w>
formal isms</w>
down link</w>
brow sing</w>
bio logy</w>
associ ative</w>
tri al</w>
transl iteration</w>
tra vel</w>
organ izing</w>
oc ular</w>
ham ming</w>
domain- specific</w>
disp lay
ca uses</w>
back propagation</w>
b ab
ac counts</w>
two- dimensional</w>
tis su
te -
speci alized</w>
si st
se e</w>
re ranking</w>
ray le
r eds</w>
n- best</w>
inser tion</w>
hund reds</w>
goo gle</w>
func tion
distingu ish
cont am
visu al
tri gram</w>
train s</w>
ste in</w>
s lot</w>
regim e</w>
recep tive</w>
primi tive</w>
p df</w>
ori entations</w>
instru ments</w>
hi bi
explo itation</w>
do ing</w>
determin es</w>
circu m
auth ors</w>
ali asing</w>
adequ ate</w>
uni qu
or e</w>
mo lec
gro unds</w>
be hin
ac tually</w>
univer sity</w>
stu dy
sn rs</w>
rec i
progra mma
pre ferred</w>
port foli
mi st
label ling</w>
i or</w>
decl ar
c pu</w>
relat edness</w>
rayle igh</w>
permut ation</w>
me t
labor atory</w>
kull back</w>
it y-
evol ving</w>
en ed</w>
easi er</w>
e go
contro lling</w>
con st
compreh ension</w>
aug mentation</w>
ali gn</w>
9 0</w>
vis e</w>
u bm</w>
tre ated</w>
tran sc
study ing</w>
rou gh</w>
r t</w>
ou ght</w>
no minal</w>
iter ated</w>
gener ator</w>
ful l-
for d</w>
eigen voice</w>
behin d</w>
audi ble</w>
ver tices</w>
u tive</w>
u ation</w>
sto p</w>
si m
ser ver</w>
sequ entially</w>
poo l</w>
pen alized</w>
new ly</w>
it z</w>
inher ently</w>
i e</w>
forma t</w>
fl uctu
f ri
enco des</w>
e co
cons tit
compati ble</w>
bel on
vali d</w>
ti ed</w>
the less</w>
taxon omy</w>
tal ker</w>
symmetr ies</w>
spor ts</w>
sp ir
sear ches</w>
ri t</w>
pron e</w>
pa c</w>
l au
horiz on
heav y</w>
d ent</w>
character izing</w>
adv ance</w>
tri phone</w>
standar ds</w>
second ly</w>
s r</w>
multipl iers</w>
interpol ated</w>
i ding</w>
gi ving</w>
conti n
comm unities</w>
c lock</w>
al ment</w>
u m-
suff ers</w>
rough ly</w>
robo tics</w>
re fer</w>
programma ble</w>
out comes</w>
m it</w>
i ee
h un
h es
h er</w>
enfor ce</w>
empha sis</w>
e ments</w>
discre tization</w>
devi ation</w>
construc ts</w>
compil ation</w>
arch i
anim ation</w>
201 1</w>
ver tical</w>
short est</w>
res amp
relax ations</w>
pos ure</w>
int ensities</w>
imple menting</w>
i a</w>
fac torial</w>
er ings</w>
ec ho
diagno stic</w>
conflic t</w>
acc es
synthesiz er</w>
st ories</w>
spar si
si de
sc ar
sat ell
s ong</w>
re weighted</w>
r ac
quantit y</w>
paraphr ase</w>
par ent</w>
p unc
out come</w>
n ull</w>
model led</w>
me lo
lon g
lexic alized</w>
enfor cing</w>
deca y</w>
co stly</w>
c n
acquir e</w>
seg -
satell ite</w>
quantit atively</w>
predic ates</w>
plac ement</w>
me se</w>
maxim izes</w>
main tain</w>
lou r</w>
key point</w>
expec tation-
de pres
de coded</w>
custo m
conce alment</w>
con sec
com mands</w>
co lour</w>
200 3</w>
we a
u ti
sour ce-
sig mo
sc ans</w>
r ate-
oscil lat
negoti ation</w>
mu l</w>
mis sible</w>
men tioned</w>
le ak
kee ping</w>
interfer ing</w>
import antly</w>
high light</w>
g ained</w>
connec tionist</w>
b ss</w>
avo iding</w>
analo gy</w>
ac y
three- dimensional</w>
t f</w>
su res</w>
se st</w>
re production</w>
propor tional</w>
promin ent</w>
pic ture</w>
per vised</w>
or -
le tter</w>
informa tion-
he avi
go ver
gen et</w>
ex posure</w>
erro ne
de f
bag -of-
b in</w>
associ ations</w>
alph ab
top ical</w>
tomo graphy</w>
skele ton</w>
sc an</w>
reas ons</w>
phono tactic</w>
phon y</w>
per sist
necess arily</w>
kno w</w>
it ter</w>
implic ations</w>
ima ge-
fam ili
elic itation</w>
d c
cros sing</w>
coch lear</w>
bene ficial</w>
aver aged</w>
ws j</w>
vo cal
vi br
tri p
speci fy</w>
sel ves</w>
sat ur
quanti ties</w>
plat forms</w>
piec e</w>
periodic ity</w>
par tite</w>
p snr</w>
ordin ary</w>
optim izes</w>
m y
gen ous</w>
ge ment</w>
broad band</w>
bloc k
band its</w>
ai red</w>
syste matically</w>
surro gate</w>
stres sed</w>
speci es</w>
ro c</w>
recor ds</w>
preser vation</w>
ph alo
neg ation</w>
le y</w>
in formed</w>
iee e</w>
hes sian</w>
facilit ates</w>
exemplar s</w>
cl im
bi -
a f</w>
- si
war ped</w>
synchron ized</w>
sl ice</w>
simpli fication</w>
se -to-
opini ons</w>
op hy
o ther
o logy</w>
iz able</w>
imp aired</w>
fingerprin ting</w>
f ar-
disco vered</w>
deplo yed</w>
consi st</w>
co- occurrence</w>
cl as</w>
v c</w>
uni fying</w>
ta il</w>
sor ting</w>
secon ds</w>
re turn</w>
ran gian</w>
pseudo -
ph ases</w>
off -
multi resolution</w>
mp e</w>
mat ting</w>
high ligh
he ight</w>
h ed
gu idance</w>
alph a</w>
af e</w>
mo ti
line ar-
heavi ly</w>
e merging</w>
domin ance</w>
cur ved</w>
co he
b y
- tive</w>
stead y</w>
so le
signi ic
sco py</w>
retriev ing</w>
rec t
prede fined</w>
opp on
man -
lag rangian</w>
inter section</w>
graph -
exhaus tive</w>
enab led</w>
en u
d p
d ai
constan cy</w>
con cre
car ry</w>
bi g</w>
back grounds</w>
200 4</w>
t el
stop ping</w>
state- of-
si bility</w>
se is
sche ma</w>
s le
s c</w>
retriev ed</w>
loop y</w>
lo be</w>
langu age-
l tering</w>
ib le</w>
glo mer
equilibri a</w>
disp er
declar ative</w>
compati bility</w>
chil d</w>
auto encoder</w>
ti ent</w>
tag ger</w>
seg men</w>
satisfac tory</w>
paralle lism</w>
par ses</w>
pain ting</w>
mor phic</w>
me sh
lingu istics</w>
inter act</w>
in dian</w>
impo s
high- resolution</w>
go ld</w>
fir ing</w>
displac ement</w>
dai ly</w>
consum er</w>
cc g</w>
bo di
bio logically</w>
ari an</w>
7 2
stra ight</w>
respec tive</w>
prim arily</w>
phr as
non linearity</w>
n ite</w>
mo ves</w>
mm i</w>
len s</w>
h ull</w>
g ated</w>
e er</w>
dro po
tre at</w>
ru le-based</w>
quo tient</w>
perceptro ns</w>
pa re
p r</w>
p in
ob stac
la b</w>
int ent</w>
h ough</w>
for ced</w>
contain ed</w>
co vering</w>
aggreg ate</w>
tex t
targe ted</w>
span ning</w>
reve aled</w>
reflec t</w>
re pair</w>
op posed</w>
modi fy</w>
mic rob
mfcc s</w>
infra red</w>
horizon tal</w>
hol istic</w>
heal th</w>
eigen vectors</w>
e g
diff er</w>
cooper ation</w>
audi o-
as ting</w>
un itary</w>
trac tability</w>
tai lored</w>
silhouet te</w>
sh el
segment a</w>
pop ul
minim ized</w>
is er</w>
intr u
in ing</w>
in c
imp air
extrac tive</w>
consec utive</w>
concentr ation</w>
c are</w>
ap o
acy clic</w>
shar p</w>
psy ch
prim al</w>
lim iting</w>
l in</w>
k b</w>
ima genet</w>
hand les</w>
han ds</w>
gra du
errone ous</w>
d ed
concer ning</w>
co ur
ch ir
bloc k-
as cent</w>
ampl itudes</w>
achiev able</w>
us able</w>
regi onal</w>
re posi
r ls</w>
out performed</w>
other wise</w>
mr fs</w>
le t
gra y</w>
g sm</w>
dialo gs</w>
di z
cor pus
contro ls</w>
concer ned</w>
coali tion</w>
co st-
clas si</w>
b f</w>
ap er</w>
an k</w>
0 0
wea ther</w>
transduc tion</w>
ti ble</w>
surro unding</w>
sub bands</w>
sk il
rou tin
resamp ling</w>
preco ding</w>
phras al</w>
mark o
listen er</w>
in duce</w>
ic ated</w>
discrimin ate</w>
collec t</w>
cli que</w>
bac ks</w>
arri er</w>
adver ti
abil istic</w>
26 4</w>
volu mes</w>
v a
sole ly</w>
s u</w>
s able</w>
rigo rous</w>
reso lutions</w>
pas s
nu is
initi ative</w>
for war
exam ines</w>
ci ent</w>
ch ed</w>
cen ters</w>
assi gn</w>
1 8</w>
vox el</w>
vo t</w>
us ly</w>
tw o
transc ei
tissu e</w>
ti -
s low
ra in</w>
q -
j aco
incorpor ation</w>
hel p
finite- state</w>
expectation- maximization</w>
ei gen</w>
deploy ment</w>
c ach
bre ak</w>
asses sed</w>
accor d
uncertain ties</w>
trans missions</w>
ton ese</w>
see k</w>
s eri
re ferring</w>
por table</w>
p ra
ortho graphic</w>
min ance</w>
me ter</w>
maxim ally</w>
l n</w>
hin di</w>
electro magnetic</w>
dropo ut</w>
cancel ler</w>
b reg
as tically</w>
appropri ately</w>
wide -
trunc ated</w>
ti l</w>
temp er
tele phony</w>
sk ill</w>
seg- mentation</w>
re use</w>
quanti fied</w>
post- processing</w>
pl asticity</w>
phone mic</w>
organ ized</w>
multipl ication</w>
invent ory</w>
inno v
incre mentally</w>
fix ed-
f using</w>
disjunc tive</w>
diag on
con sequence</w>
cli ps</w>
c d</w>
vari ed</w>
un til</w>
the m
them selves</w>
syllab ic</w>
ny qu
non- gaussian</w>
ne ar
lif ted</w>
l ate</w>
im itation</w>
g ar
f fe
e c</w>
diver g
de coders</w>
con e</w>
be ta</w>
at eral</w>
anomal y</w>
strateg ic</w>
silhouet tes</w>
s g
perm its</w>
in direct</w>
ig no
ence phalo
distinc tive</w>
dis joint</w>
col lu
chec k</w>
ad missible</w>
a dic</w>
200 9</w>
w an
tut oring</w>
temp o</w>
super pixels</w>
ro lling</w>
rich er</w>
rel aying</w>
re main</w>
pri ori
om ni
non monotonic</w>
l or</w>
ir regular</w>
gras s
diagra m</w>
correc tness</w>
conver gent</w>
c itation</w>
breg man</w>
be gin
an tic
1 7</w>
th y</w>
sugg esting</w>
st al
specific ations</w>
speaker- independent</w>
separ ability</w>
sca le-
op tric</w>
instan ti
in ferences</w>
gene ity</w>
form ally</w>
extrac tor</w>
detec ts</w>
col ors</w>
cl ip
can tonese</w>
bi partite</w>
align ing</w>
- ti
un reliable</w>
titu de</w>
sp reading</w>
segreg ation</w>
sec ure</w>
rever sible</w>
regul arities</w>
photo graphs</w>
nyqu ist</w>
ne ver
ne i
nei ther</w>
ma s</w>
line ar
investig ating</w>
expan ded</w>
el ed</w>
divi de</w>
cont act</w>
consider ations</w>
caus ality</w>
bus iness</w>
ag glomer
ab duc
vol ter
transp ort</w>
t ay
syn tac
sto od</w>
seis mic</w>
psycho logical</w>
pa uses</w>
over complete</w>
movi es</w>
maintain s</w>
lau gh
in sensitive</w>
ge ments</w>
en jo
dialec ts</w>
ded icated</w>
cor ner</w>
continu ously</w>
c k
assign ing</w>
ac ted</w>
` `</w>
wel ch</w>
wal king</w>
volter ra</w>
uni on</w>
triang ulation</w>
to ur
speci ic</w>
scan ning</w>
res er
repeti tive</w>
regi stered</w>
rank ings</w>
pre fix</w>
pare to</w>
over comes</w>
o graphy</w>
nas al</w>
g ating</w>
equal izers</w>
clou ds</w>
auc tions</w>
al bed
201 3</w>
-l ength</w>
under stood</w>
trac es</w>
targe ting</w>
t ying</w>
stac king</w>
punc tu
pu zz
posi tioning</w>
nuis ance</w>
nar r
maxim um
inf lec
in ative</w>
fici ency</w>
di d</w>
d na</w>
calcul ating</w>
beli eve</w>
architec tural</w>
anat om
affec ts</w>
ac tively</w>
wh it
transl ate</w>
tr ading</w>
ter med</w>
simp lex</w>
por tion</w>
obser ving</w>
milli ons</w>
in formal</w>
ima ge-based</w>
fa ults</w>
expres si
des tin
collec ting</w>
2 4</w>
u be</w>
to ken</w>
sp ur
se am
propo sing</w>
or thon
ob vi
maxim a</w>
man u
log- linear</w>
hor n</w>
equ ally</w>
demonstr ation</w>
d t</w>
d t
cut ting</w>
code cs</w>
co pul
assi stance</w>
ar ms</w>
ap hor
am i</w>
accep table</w>
wa ves</w>
tri als</w>
repe at
re writing</w>
pl da</w>
out performing</w>
never theless</w>
mo r</w>
men tion</w>
m nist</w>
l ds</w>
interpre t</w>
hyper parameters</w>
g -based</w>
elimin ate</w>
dic tation</w>
cardin ality</w>
bri gh
blac k</w>
b ps</w>
asses sing</w>
ad ap</w>
- sian</w>
y out
wor st-
vi an</w>
ve rely</w>
se verely</w>
s erial</w>
perturb ations</w>
parametr ization</w>
or mal</w>
numer ic</w>
no tions</w>
lo st</w>
li ps</w>
l ace</w>
initi ally</w>
gaus -sian</w>
fa ir</w>
ed ly</w>
du al-
dar pa</w>
cent ered</w>
auc tion</w>
ase -
- valued</w>
worst- case</w>
synthe si
st a</w>
ses sions</w>
rever se</w>
prog res
panoram ic</w>
out side</w>
o d
mix ed-
meta -
instruc tions</w>
in variants</w>
hyp er</w>
hol ds</w>
high- quality</w>
f g</w>
establish ing</w>
es se
enu mer
diverg ences</w>
dele tion</w>
correc ted</w>
ber no
an tal</w>
ac tor</w>
</ i></w>
un super</w>
trans forming</w>
thes aur
son ar</w>
skil ls</w>
repeti tion</w>
r us
po sts</w>
physi cally</w>
photo s</w>
paradig ms</w>
lat er</w>
interpre tations</w>
h app
gener ality</w>
formul ating</w>
fin an
de correlation</w>
cu bic</w>
concre te</w>
wor kers</w>
ul arities</w>
su p</w>
s ation</w>
prof essi
pl u
las er</w>
interpre ting</w>
indic ating</w>
in sufficient</w>
h on
g mms</w>
for getting</w>
f gs</w>
eigen space</w>
ec g</w>
d or
custo mer</w>
constr ain</w>
ac commod
a z
v ad</w>
un correlated</w>
ti se</w>
t ends</w>
synthesiz ing</w>
sof t
re turns</w>
q r</w>
or ization</w>
narr ative</w>
multi -layer</w>
men tions</w>
maximum -likelihood</w>
manag er</w>
inten tion</w>
in e-
hi ding</w>
finan cial</w>
feat ure-
down stream</w>
degra des</w>
de e
con ic</w>
comp ris
chan ge
bi ases</w>
activ ations</w>
-r al</w>
z o
vocabul aries</w>
ver tex</w>
tay lor</w>
ser ves</w>
s we
ro ute</w>
ro ll
radi o
quad r
pa i
n p-
l and</w>
impul sive</w>
hyper graph</w>
function als</w>
feature -based</w>
dro p
d -based</w>
cat adi
b ird</w>
alphab et</w>
yout ube</w>
ws d</w>
train able</w>
ten ess</w>
stereo scopic</w>
stac k</w>
sp am</w>
see ms</w>
s d</w>
rgb -d</w>
r he
portfoli o</w>
pai red</w>
origin ally</w>
n l
multit ask</w>
loo king</w>
li gib
jec tive</w>
individu ally</w>
in ated</w>
g ps</w>
fer encing</w>
dis orders</w>
delay ed</w>
degra de</w>
de vise</w>
d less</w>
correl ates</w>
blo od</w>
bil ities</w>
b ir
auth or</w>
as -
ama z
albed o</w>
so und
sa c</w>
real izations</w>
pedestr ians</w>
p lo
j itter</w>
industr ial</w>
gro ws</w>
ep iso
e sp
distingu ishing</w>
code books</w>
cl ick</w>
c mos</w>
b c</w>
ati vity</w>
approxim ates</w>
adj ust</w>
abstr actions</w>
< i></w>
ver y
u pl
trac k
ti al</w>
synthe size</w>
stor e</w>
ste ering</w>
spur ious</w>
sk y</w>
proto types</w>
pro hibi
polynomi als</w>
piec es</w>
p ar</w>
over view</w>
mon aural</w>
mo un
men -
is- tic</w>
intui tion</w>
hypothe sized</w>
flic k
ffic e</w>
eng lish
e x</w>
decre ases</w>
decompo sable</w>
chin e
bu ff
bil ateral</w>
aurora -
ai ds</w>
word -based</w>
sla m</w>
simil arly</w>
short -time</w>
shif ted</w>
scat ter</w>
ri dge</w>
represent ational</w>
re r</w>
re action</w>
pro of
non rigid</w>
modul arity</w>
key points</w>
he b
hand led</w>
fail ures</w>
explan ations</w>
erro r-
en rich
depres sion</w>
d ru
d able</w>
corpus -based</w>
bag ging</w>
5 00</w>
4 d</w>
1 d</w>
v able</w>
transl ating</w>
stric tly</w>
stric t</w>
simul ator</w>
resi li
rel l
recommend ations</w>
re ality</w>
pro mp
plac ed</w>
par al
neg ligib
leak age</w>
indic ator</w>
impo sing</w>
fp ga</w>
for cing</w>
exper tise</w>
equip ped</w>
e very
deci de</w>
cross- domain</w>
coun ted</w>
colum ns</w>
ch ao
catadi optric</w>
camp ai
upl ink</w>
un bounded</w>
synchron y</w>
state- space</w>
star ts</w>
speech -to-
sent ential</w>
satis fies</w>
s al</w>
p p
non- uniform</w>
neighbor hoods</w>
ne y</w>
mean ings</w>
mas s</w>
lap lace</w>
enc r
ee ec
e ous</w>
discre pancy</w>
cy clo
construc tions</w>
con traction</w>
be at</w>
balan cing</w>
archi ves</w>
acquir ing</w>
accomp lished</w>
wil d</w>
w .
u r</w>
u bi
the sis</w>
stro ke</w>
sho ts</w>
shif ting</w>
sent ence-
rhyth mic</w>
rel ate</w>
out-of- vocabulary</w>
noi se
new sp
negligib le</w>
multi- dimensional</w>
me t</w>
me et</w>
m is</w>
m -based</w>
laugh ter</w>
hyper ny
help ful</w>
foot print</w>
fici ally</w>
excep t</w>
er go
crow ded</w>
cramé r</w>
context- free</w>
chao tic</w>
cap tion</w>
bel ong</w>
be low</w>
arran gement</w>
3 2</w>
1 6
tur k
ten ing</w>
temper ature</w>
r f</w>
r at
qu es</w>
molec ular</w>
mil d</w>
impos sible</w>
encr yp
dy adic</w>
decompo sing</w>
coordin ated</w>
ch em
categor ical</w>
brigh tness</w>
back- leibler</w>
b re</w>
annot ating</w>
analy si
an e</w>
agglomer ative</w>
-ran ge</w>
-li fe</w>
th an
ta p</w>
sign ed</w>
se ven</w>
s ti
ri g
quer ying</w>
overl apped</w>
mm a</w>
margin als</w>
local izing</w>
indic es</w>
form ants</w>
de ter
comple teness</w>
c m</w>
bin s</w>
b es</w>
a way</w>
uni fication</w>
typ ing</w>
tree -based</w>
tail ed</w>
sub problems</w>
su st
spe eds</w>
s afe</w>
remo ved</w>
re place</w>
qualit atively</w>
proble matic</w>
preser ved</w>
pre fer
posi tional</w>
n lms</w>
mus cle</w>
kull back-leibler</w>
kine matic</w>
it -
heb bian</w>
econ omic</w>
di er
conver t</w>
col li
bur den</w>
b ad</w>
at er
adap ts</w>
7 0</w>
2 p</w>
ubi qu
pop ularity</w>
pipel ined</w>
pic tures</w>
pers ons</w>
pap ers</w>
p t</w>
p ear
non- local</w>
mo uth</w>
in painting</w>
gran ularity</w>
general izing</w>
fro m-
forec asting</w>
concer ns</w>
con n
col lap
chun king</w>
cc a</w>
bin ocular</w>
attach ment</w>
adju sted</w>
19 8
vari es</w>
us ability</w>
toler ant</w>
rhe tor
reci proc
re plic
qu alities</w>
punctu ation</w>
psycho acoustic</w>
pl p</w>
obser ver</w>
loop s</w>
influ ences</w>
impo se</w>
gaus s</w>
disc i
dia c</w>
d ly</w>
d educ
compu ters</w>
clas s-
bit -
atten uation</w>
as ser
200 2</w>
w f
ull i</w>
th ai</w>
termin al</w>
t y-
see ks</w>
s tic
regar dless</w>
real -life</w>
re semb
r .
line arities</w>
inter national</w>
for ces</w>
extr insic</w>
et si</w>
er o
ele g
cohe sion</w>
co h
c sps</w>
aurora 2</w>
altern ate</w>
acous tic-
ab normal</w>
x ed</w>
wave le
t age</w>
struct ur
stron ger</w>
standar diz
st ations</w>
s titu
regar ded</w>
or ate</w>
modi fying</w>
mer ge</w>
me m
m t
local ize</w>
join ing</w>
frac tal</w>
famili ar</w>
f a</w>
elec tric</w>
e ight</w>
dat a
chem ical</w>
cal ls</w>
assi stant</w>
wi re</w>
ut ter</w>
uc i</w>
turk ish</w>
topo logies</w>
tim ate</w>
than ks</w>
see king</w>
rot ational</w>
rhetor ical</w>
rel ays</w>
regi on-based</w>
reflec ted</w>
pro b</w>
mi d-
mesh es</w>
learn ing-based</w>
lar yn
k el
inter ior</w>
imp lies</w>
highligh ts</w>
f- measure</w>
f light</w>
e k</w>
e able</w>
dra wing</w>
de focus</w>
d an
cl ari
br ings</w>
berno ulli</w>
beamform ers</w>
bas e-
appear ances</w>
appe aling</w>
anatom ical</w>
amaz on</w>
ad ult</w>
acceler ation</w>
a- tive</w>
a stro
2 5
word- level</w>
win ner</w>
wi der</w>
vo coder</w>
up les</w>
synap ses</w>
sub graph</w>
spectro -temporal</w>
si ght</w>
r ed
prog ression</w>
packe ts</w>
optim a</w>
observ ability</w>
objec t-
nuc le
modul ations</w>
mod -
mi l</w>
mat ter</w>
lat eral</w>
homo graphy</w>
g aps</w>
electr ical</w>
draw backs</w>
conc ise</w>
comple ment</w>
blac k
band limited</w>
200 1</w>
yo u</w>
tri angular</w>
te ach
su f
single- channel</w>
simul ate</w>
rus sian</w>
popul ations</w>
par t
par sed</w>
orthog onality</w>
numer ically</w>
nois ing</w>
mv dr</w>
junc tion</w>
instruc tion</w>
h all
f all</w>
dr astically</w>
dou b
divi ded</w>
3 0
trans ferring</w>
to day</w>
ti er</w>
termin als</w>
st or</w>
s /
resol ving</w>
reg ard</w>
pat ch
mis classification</w>
memb ers</w>
marko vian</w>
kernel ized</w>
ho st</w>
graphe me
fi able</w>
e mission</w>
develop ments</w>
defin es</w>
communic ative</w>
classi fications</w>
b ci</w>
attrac ted</w>
arti ficially</w>
alo g</w>
2 8</w>
util ization</w>
tw ise</w>
text- independent</w>
sh an
sa fe
ri m</w>
replac ing</w>
n ish</w>
mut ually</w>
mic ro</w>
me tro
k an
hyper plane</w>
found ation</w>
expan sions</w>
d c</w>
contam inated</w>
constitu ents</w>
complex ities</w>
code -
clas -si
c v</w>
bri ef
analyz es</w>
aim ing</w>
w ol
toler ance</w>
th ought</w>
s si
retri eve</w>
resul ted</w>
rel ating</w>
real ize</w>
rate- distortion</w>
psych ophy
non uniform</w>
neigh bo
multi- level</w>
j am
h e</w>
gro unding</w>
goo d
fail s</w>
enhan ces</w>
ear th</w>
draw back</w>
diff ers</w>
deriv ations</w>
co py
car dio
an aphor
acous tically</w>
8 -
vide o
th in</w>
spectr o</w>
retin al</w>
restric tive</w>
resi du
remark able</w>
re st
prob able</w>
peri ph
p ag
op tion</w>
na mese</w>
mpeg- 4</w>
mel- frequency</w>
inver ted</w>
interes tin
hal f
gu ide
gri ds</w>
gra y
general izations</w>
gener al-
g las
favor able</w>
ergo dic</w>
e av
da ma
cir cul
cap tions</w>
be coming</w>
9 5</w>
3 5</w>
zer os</w>
tr ends</w>
through out</w>
tempor ary</w>
t rell
trell is</w>
stabil ization</w>
ran sac</w>
radi ance</w>
professi onal</w>
probabil is</w>
prob e</w>
pi vot</w>
parti tioned</w>
op tions</w>
mul -ti
max- margin</w>
m le</w>
j av
ge red</w>
es tion</w>
en try</w>
cross- validation</w>
clo sest</w>
clip ping</w>
cl ient</w>
bit stream</w>
axi oms</w>
aug ment</w>
2 1</w>
vie t
viet namese</w>
v ts</w>
un labelled</w>
ubiqu it
u ms</w>
ten ance</w>
su c
soft max</w>
prev ent</w>
prec ed
poin twise</w>
ob li
o id</w>
neu -ral</w>
near by</w>
multiple- output</w>
mpe g</w>
mis matches</w>
main tenance</w>
le mma</w>
la g</w>
in stant</w>
fre e
flu o
esp rit</w>
es -
enti rely</w>
dri ver</w>
do m</w>
con ferencing</w>
chan ged</w>
ch ance</w>
car diac</w>
am r</w>
trig ger</w>
tal kers</w>
siz ing</w>
retain ing</w>
replac ed</w>
recur sively</w>
norm ally</w>
ne ver</w>
m ce</w>
ec ient</w>
cont ent-based</w>
car s</w>
cach e</w>
bran ching</w>
1- regularized</w>
y ear</w>
wor se</w>
wal ks</w>
vt ln</w>
v -
uniqu eness</w>
tur k</w>
t ou
t doa</w>
stop s</w>
side lobe</w>
satis fying</w>
recti fied</w>
predic table</w>
p ly</w>
normal isation</w>
new s
multi- stream</w>
mark ets</w>
ke ep</w>
ju mp</w>
inton ational</w>
ing ing</w>
hand set</w>
exp ense</w>
disflu encies</w>
cre ates</w>
clo thing</w>
ch i</w>
can cer</w>
bust ness</w>
bag s</w>
arch ive</w>
accord ingly</w>
tree- structured</w>
tre ating</w>
tim bre</w>
super pixel</w>
spectro grams</w>
shor ter</w>
sec rec
regular izers</w>
rect angular</w>
re ferences</w>
r ising</w>
propag ating</w>
per fec
p p</w>
orthon ormal</w>
o ld</w>
newsp aper</w>
loud speakers</w>
inclu sion</w>
in spec
ign ore</w>
i sts</w>
ge al</w>
fre ely</w>
for um</w>
f lat
f are</w>
expres sing</w>
emb ed</w>
dri ve</w>
develo ps</w>
cros stal
con qu
centro id</w>
c au
b id
arti fact</w>
annot ators</w>
accommod ate</w>
-to- phoneme</w>
ultr a</w>
typ ed</w>
twe ight</w>
sub- band</w>
sub systems</w>
st m</w>
sigmo id</w>
si li
shel f</w>
re training</w>
non local</w>
n '
n' t</w>
ligh tweight</w>
high- order</w>
h our</w>
grou ped</w>
fir e</w>
ener g
differenti able</w>
degrad ations</w>
cross -language</w>
compu ter-
collabor ation</w>
co vari
chir p</w>
cas ting</w>
adv ice</w>
ad -
ab und
20 0</w>
with in-
w. r.
tra its</w>
ter y</w>
suc ce
per s</w>
par t-based</w>
out age</w>
of- arrival</w>
occlu ding</w>
o ffice</w>
no tes</w>
multi- resolution</w>
morpho logically</w>
morphe me</w>
low est</w>
local isation</w>
lag range</w>
igno red</w>
i on</w>
h ps
fri end
fin nish</w>
evalu ates</w>
en sures</w>
e w
dra w</w>
disci pl
conjunc tive</w>
co vers</w>
buil dings</w>
belon ging</w>
be st-
ap parent</w>
sty l
str ö
sac ri
ro ver</w>
pron oun</w>
projec tor</w>
opportun istic</w>
ob is</w>
mer its</w>
m acro
loud ness</w>
k ar
it y-based</w>
func tionality</w>
f itted</w>
enc e-based</w>
electro encephalo
domin ated</w>
cu be</w>
conqu er</w>
an ti</w>
al ised</w>
aggreg ated</w>
ad ic
ac counting</w>
2 2</w>
1 5
web -based</w>
vi d</w>
ubiquit ous</w>
time scale</w>
the tic</w>
sw ed
speci fying</w>
sho p</w>
proc e
preco der</w>
paral ingu
non- speech</w>
n- grams</w>
miti gation</w>
mean while</w>
leg al</w>
information- theoretic</w>
imp rac
gh ted</w>
exam ining</w>
ec i
dec im
d d</w>
correc tions</w>
cm u</w>
c si</w>
br ing</w>
ar ous
1 -d</w>
vibr ation</w>
t um</w>
str ati
sili con</w>
sil ence</w>
seri ous</w>
restric tion</w>
replac ement</w>
ra rely</w>
qu ater
prun ed</w>
pres enting</w>
pre- processing</w>
po li
perspec tives</w>
pas ses</w>
ow l</w>
mi x</w>
lec tures</w>
la ws</w>
k o
ir is</w>
indic ators</w>
in coming</w>
gray scale</w>
ga me-
formal ize</w>
factor ized</w>
equ alities</w>
educ ational</w>
disc rim</w>
dis order</w>
commit te
ca sts</w>
au ti
anim al</w>
analog ous</w>
am -
a w</w>
2 3</w>
us -
t ant</w>
sub tle</w>
strö m</w>
slow ly</w>
seg men-
ro ws</w>
reposi tory</w>
reflec ts</w>
o c</w>
low- complexity</w>
l apped</w>
intru sive</w>
in accurate</w>
identi ication</w>
ic ul
ht k</w>
ho p</w>
hin ge</w>
he re
h ap
g end
dep ic
crosstal k</w>
cour ses</w>
contr ary</w>
c nns</w>
bas e
ba um</w>
arous al</w>
al t</w>
ad m
0. 5</w>
w b</w>
thesaur us</w>
t y
swed ish</w>
super- vised</w>
stac kel
sp lines</w>
sign aling</w>
shap e-
set ups</w>
secrec y</w>
scre ening</w>
ra ys</w>
pra g
ny ström</w>
min or</w>
mat lab</w>
mark er</w>
lo ading</w>
knowled ge-based</w>
k hz</w>
in- domain</w>
imprac tical</w>
grou p
g l
g ates</w>
fair ly</w>
experim entation</w>
eng th
eav es
discrimin a</w>
de man
con ference</w>
co p
c v
attrib uted</w>
articul ator</w>
analo gue</w>
an o</w>
un observed</w>
time- domain</w>
targe t-
t rec
t end
stackel berg</w>
sc ented</w>
sa ving</w>
s war
rou ge</w>
re active</w>
persist ent</w>
pe ak
no tic
ls f</w>
k ron
jud gements</w>
geometr ically</w>
ey es</w>
ed ge-
dra matic</w>
cr yp
conven ient</w>
controll ers</w>
contr adic
continuous -time</w>
bit rate</w>
bil li
ut ation</w>
un super-vised</w>
un ary</w>
tur ned</w>
si on
sh utter</w>
satis fied</w>
perio ds</w>
nes ses</w>
near- optimal</w>
mosa icing</w>
miti gate</w>
min i
magn itudes</w>
look up</w>
log -likelihood</w>
la z
k it
ho g</w>
hi es</w>
frequency- domain</w>
fluctu ations</w>
f d</w>
f ar
expec tations</w>
eeci ents</w>
decre asing</w>
d b
cur se</w>
co eecients</w>
clos er</w>
cl aim</w>
care ful</w>
brief ly</w>
al ize</w>
2. 5</w>
- and-
whi sp
wel fare</w>
us ting</w>
trade offs</w>
te st
surve y</w>
state ments</w>
so lid</w>
sho ck</w>
sar th
r y
pr icing</w>
pi es</w>
pers onality</w>
par ag
out line</w>
op tic</w>
melo dy</w>
low- resolution</w>
imple ments</w>
hierarch ically</w>
ham il
hal an
en roll
dy sarth
du ality</w>
diagon alization</w>
destin ation</w>
de mo
conserv ative</w>
comp an
adverti sing</w>
adj usting</w>
accep tance</w>
z iv</w>
z en</w>
v esse
two- step</w>
trans lat
th ering</w>
suppres s</w>
sm all-
shan non</w>
scrip tion</w>
sacri fic
s ni
rgb d</w>
retin a</w>
rest aur
requ e
remark ably</w>
reco vers</w>
re- identification</w>
ran ges</w>
por tions</w>
polynomi al-
per cent
patho logical</w>
parag rap
pag er
on going</w>
neg ativity</w>
lu minance</w>
h t</w>
grass mann</w>
go log</w>
formul ae</w>
fil m</w>
extr apo
er -based</w>
el lation</w>
ego centric</w>
educ ation</w>
display s</w>
de ep
const ellation</w>
co py</w>
behavi o
aug menting</w>
articul ators</w>
adop ting</w>
acc ent
8 0
-lab eled</w>
w.r. t</w>
v ast</w>
transl ational</w>
tr ick</w>
tr i</w>
tr end</w>
til t</w>
th u
sto ck</w>
st ar</w>
specific ity</w>
segmen- tation</w>
re aching</w>
propag ated</w>
pro ficiency</w>
pre par
prac tically</w>
polar ization</w>
ou ter</w>
noise- robust</w>
multic ast</w>
multi label</w>
mi es</w>
ma tics</w>
lea f</w>
jav a</w>
indic ated</w>
h s</w>
ex er
corrup tion</w>
clim bing</w>
b one</w>
ad joining</w>
10 1</w>
tec h</w>
sof t-
so unding</w>
signiic ant</w>
se- english</w>
scar ce</w>
s p</w>
s ou
recor d</w>
recogn iser</w>
qu i
propor tion</w>
pred o
par si
no w
ment -
justi fication</w>
instru mental</w>
identi fiability</w>
hps g</w>
hall uc
grapheme -to-phoneme</w>
gest ural</w>
general ised</w>
g aining</w>
fil l</w>
estima tions</w>
emp ty</w>
ec ker</w>
den sely</w>
cy lin
copul a</w>
comp as
annot ator</w>
acceler ate</w>
2. 0</w>
2 d-
1 9</w>
wor lds</w>
un mixing</w>
tr ic
tok en
selec tivity</w>
satur ation</w>
quater ni
plac es</w>
par all
pair -wise</w>
oper ational</w>
mem ories</w>
li p
less ly</w>
intere sts</w>
in put
head -
g arian</w>
fol ding</w>
flu id</w>
f t-
f its</w>
f ed</w>
expl ained</w>
dis k</w>
deli very</w>
de vised</w>
d nns</w>
correl ate</w>
conclu sions</w>
con vol
con g
classi -
ce -based</w>
c t
b log</w>
an ti-
2 6</w>
x -based</w>
vari ab
var i</w>
twe et</w>
transm itting</w>
trans ferred</w>
tra ve
tr im
ther ap
ter rain</w>
struct ure-
stru c</w>
sil ent</w>
rup t</w>
projec ting</w>
pro ving</w>
pr o</w>
p d</w>
off sets</w>
non zero</w>
mod- eling</w>
mo ni
mechan ics</w>
m it
m d</w>
k nn</w>
halan obis</w>
ha ir</w>
gradu ally</w>
fil led</w>
f ers</w>
en compas
emer ged</w>
e pl
direc tion-
dialec tal</w>
de mands</w>
de b
d w
contribut es</w>
co inci
c ents</w>
band pass</w>
anim ated</w>
analy se</w>
201 4</w>
wavele t-based</w>
tran spor
to y</w>
t ob
t ally</w>
speaker- dependent</w>
spar sely</w>
s fm</w>
routin e</w>
real time</w>
pul ses</w>
predo min
perfec tly</w>
pager ank</w>
oppon ent</w>
multipl ier</w>
mo tion-
mo bility</w>
low er-
lo mb
kin ect</w>
hyper parameter</w>
human- computer</w>
flo ating</w>
feed -
expl ains</w>
devi ations</w>
dec ade</w>
d bn</w>
constit ute</w>
configur able</w>
con sequences</w>
cn f</w>
categori al</w>
au c</w>
ar y
ac tors</w>
vol tage</w>
un stable</w>
tur n-
th ro
te am
rel ax</w>
quantiz ers</w>
quadr ature</w>
q l</w>
po les</w>
percent age</w>
par a</w>
over sampled</w>
np- hard</w>
neg lec
mpeg- 2</w>
mon o</w>
ma ker</w>
la -
investig ations</w>
intui tively</w>
interlea ved</w>
in homogeneous</w>
ho p
hard ness</w>
fair ness</w>
fac ed</w>
extrapo lation</w>
eigen values</w>
dro p</w>
disflu ency</w>
deca des</w>
con tra
col or
cap tioning</w>
cal tech
bur st</w>
bri d
br df</w>
bi orthogonal</w>
be aring</w>
b ic
ad mm</w>
ac ade
7 5</w>
-r edu
where by</w>
vo ted</w>
un scented</w>
tree banks</w>
tigh tly</w>
summ ation</w>
suf fix</w>
sub system</w>
struct uring</w>
ste p-
smalle st</w>
segment a-tion</w>
sc ed
restaur ant</w>
rele ase</w>
reason ably</w>
osc ill
ne ur
monit or</w>
laz y</w>
k n
intelligib le</w>
in feasible</w>
in equalities</w>
impair ment</w>
gre ek</w>
fac tual</w>
exc it
engine ered</w>
d end
cra w
communic ate</w>
common sense</w>
collu sion</w>
ci es</w>
bre vi
av c</w>
accep ted</w>
ab brevi
a g</w>
201 5</w>
ton ian</w>
super vector</w>
sub m
sub graphs</w>
sr l</w>
smooth ly</w>
si ded</w>
sentence- level</w>
scrip t</w>
safe ty</w>
rt 0
prob a</w>
pres cri
phone tically</w>
parall ax</w>
op h
one- dimensional</w>
o ce
multi rate</w>
mon te-
mist akes</w>
mis s</w>
midd le</w>
mac ro</w>
l man</w>
kron ecker</w>
ke t</w>
iso metric</w>
i. i.
h r</w>
forensi cs</w>
flu ency</w>
feed- forward</w>
explor atory</w>
em g</w>
elimin ates</w>
e po
differ ently</w>
de modulation</w>
cri tic</w>
conserv ation</w>
connec ting</w>
cl ic
cer tain
c ase-based</w>
assi st</w>
analysi s-
af for
wor ked</w>
wide spread</w>
wid ths</w>
w f</w>
ut tered</w>
tigh ter</w>
ti sh</w>
t ories</w>
subjec tivity</w>
stitu tions</w>
scre en</w>
ri a</w>
ref ers</w>
procedu ral</w>
post ul
possi bilities</w>
p lex</w>
ord erings</w>
obstac les</w>
my op
min e</w>
min d</w>
min -
mathema tically</w>
m kl</w>
k bps</w>
it u</w>
it er</w>
induc es</w>
index ed</w>
in consistency</w>
imp utation</w>
identi ties</w>
i fication</w>
he at</w>
hand- crafted</w>
h ill</w>
fa c</w>
f o</w>
equip ment</w>
discre te
d n
cor ners</w>
con temporary</w>
bri tish</w>
br ac
bi modal</w>
base- line</w>
bag-of- words</w>
b is
auto encoders</w>
agg ressive</w>
4 5</w>
10 0
x ml</w>
v i</w>
two fold</w>
transcrip t</w>
to epl
ti ve-
standardiz ed</w>
st d</w>
spo of
selec tively</w>
sec ret</w>
schedu les</w>
read ability</w>
r edi
quer y-
quan tum</w>
possi bilistic</w>
play ed</w>
non linearities</w>
multiple- input</w>
mid- level</w>
mer it</w>
md l</w>
ma halanobis</w>
l t</w>
inter fe
in fin
in cen
incen tive</w>
ho les</w>
ha ar</w>
gen res</w>
g ale</w>
extrac tors</w>
exp and</w>
distinc tion</w>
disc ar
direc tory</w>
dee per</w>
deci ding</w>
de ad
custo m</w>
cri tically</w>
con trac
compo unds</w>
coar se-to-
ch am
ce ments</w>
bab ble</w>
analyz er</w>
abstr acts</w>
9 6</w>
1. 5</w>
0. 8
wr ite</w>
volu tional</w>
vo te</w>
v as
tra it</w>
the red</w>
ten se</w>
recur sion</w>
recti fication</w>
quanti fying</w>
psychophy sical</w>
proof s</w>
prim e</w>
poly g
particip ant</w>
p es
op ening</w>
norm ality</w>
no stic</w>
monte- carlo</w>
il p</w>
gro w</w>
gmm -
ga thering</w>
g all
fra men
form alization</w>
elimin ating</w>
diver si
deter i
de cep
connec t</w>
concaten ated</w>
coarse-to- fine</w>
ch or
black wel
bat tery</w>
az im
auti sm</w>
antic ip
anaphor a</w>
accomp an
acces sible</w>
- tional</w>
w ant</w>
vox els</w>
v ice</w>
ular ization</w>
switch ed</w>
surpr ising</w>
sum -
so -
simp le
sch oo
s dp</w>
real- valued</w>
reach ed</w>
ps d</w>
ph ase-
optim izations</w>
obvi ous</w>
ne are
mark up</w>
lomb ard</w>
inter aural</w>
innov ative</w>
ing /
imp ressive</w>
he ar
h rt
good ness</w>
four th</w>
fluo res
factor isation</w>
end o
eleg ant</w>
decision- making</w>
co re
co gn
cl aims</w>
beli ev
b r</w>
axi o
atten tional</w>
al izing</w>
affec ting</w>
a w
1/ 2</w>
ven u
under -
un weighted</w>
sup ple
sub linear</w>
st ers</w>
st er
sl u</w>
simpli fy</w>
se em</w>
resul tant</w>
remo ves</w>
re pl
ques tion-
pro no
pri ority</w>
por tability</w>
poin ting</w>
phone -
parsi moni
p de</w>
n ese</w>
micro scopy</w>
infra structure</w>
influ enced</w>
in fo
hyper -
hetero sced
gradi ent-based</w>
fingerprin ts</w>
enroll ment</w>
e ase</w>
dis counted</w>
di phone</w>
dep ths</w>
deman ding</w>
decompo ses</w>
dat alog</w>
calcul ations</w>
ca des</w>
c u</w>
c g</w>
c art</w>
bre a
back off</w>
auth or
anim als</w>
9 9</w>
1- best</w>
wan ted</w>
vers ati
val ence</w>
v m</w>
toepl itz</w>
time- series</w>
resol ved</w>
radi us</w>
puzz le</w>
pro x
par tly</w>
min ed</w>
mean- square</w>
manu fac
ls p</w>
initi alized</w>
il s</w>
i m</w>
general- purpose</w>
g al
ful ly-
fric atives</w>
fix ation</w>
experi ences</w>
er able</w>
enc y-based</w>
discrete -time</w>
discontinu ity</w>
deci ph
d amp
campai gn</w>
bel lman</w>
b ul
at h</w>
ad ds</w>
activ ated</w>
a es
windo wed</w>
wh il
whil st</w>
weak nesses</w>
under determined</w>
transi tion-based</w>
teach er</w>
str al</w>
spoof ing</w>
spher ic</w>
sing le
scat tered</w>
residu als</w>
res yn
ps k</w>
propag ate</w>
po ker</w>
p t
neare st-
n one</w>
moti fs</w>
mach ine-
low- resource</w>
lo ts</w>
iso lation</w>
intr insi
im medi
go es</w>
geo graphic</w>
framen et</w>
fa st
f mllr</w>
every day</w>
e ties</w>
disper sion</w>
disco vers</w>
dis- criminative</w>
dis continuous</w>
dier ent</w>
clu es</w>
at -
adjac ency</w>
7 8</w>
5 -
3 3</w>
un su</w>
un desirable</w>
ultras onic</w>
tri phones</w>
transpor tation</w>
subm itted</w>
su pr
stim ulation</w>
simul ating</w>
se c</w>
s ad</w>
rever sal</w>
rel ates</w>
regim es</w>
re rs</w>
re c</w>
re aches</w>
psycho logy</w>
poly top
poli tical</w>
pic torial</w>
pi e</w>
perturb ed</w>
penal ties</w>
parsimoni ous</w>
occu pancy</w>
o p</w>
o g
n ding</w>
mono tone</w>
min gs</w>
midd le
met aph
mer ged</w>
lea ves</w>
l ung</w>
k ur
inno vation</w>
im balance</w>
ic ious</w>
i ler</w>
hand s-
gmm -based</w>
friend ly</w>
fre e-
flick r</w>
explan atory</w>
enjo ys</w>
enfor ces</w>
encour age</w>
em bodi
el ab
dist urb
de code</w>
cur sive</w>
compil ed</w>
co mings</w>
cir cle</w>
cap it
bre aks</w>
begin ning</w>
ance -based</w>
adap -tive</w>
ab rupt</w>
3 00</w>
voic e
u ting</w>
tre c</w>
th read</w>
super vis
slo pe</w>
sinuso ids</w>
short comings</w>
recep tion</w>
projec ts</w>
pro ves</w>
pro nouns</w>
poly phase</w>
op en
omni directional</w>
memb er</w>
ma tive</w>
long -range</w>
line arization</w>
know ing</w>
interestin gly</w>
ht n</w>
hmm /
ge ts</w>
g 2p</w>
f it
expec t</w>
exce eds</w>
english -
emer gence</w>
eigen vector</w>
eeec tive</w>
doub le-
deri ves</w>
de generate</w>
de co
conver ter</w>
construc tive</w>
collap sed</w>
co vered</w>
cli ques</w>
ci far-
character izes</w>
bran ch-
brac ke
bl ending</w>
autom ation</w>
ap art</w>
annot ate</w>
am enable</w>
accomp lish</w>
a -based</w>
-l im
y less</w>
y a</w>
un restricted</w>
top ic-
tion /
tio us</w>
synta x-based</w>
syn er
sub problem</w>
stan ces</w>
speech-to- speech</w>
si cally</w>
sg d</w>
samp lers</w>
ri p
prov able</w>
progres sively</w>
po se
p m</w>
not ably</w>
neighb our</w>
multi stage</w>
mode st</w>
methodo logies</w>
log ic
inf ant</w>
im balanced</w>
il l-
har der</w>
forwar d-
fac ing</w>
f 2</w>
explo sion</w>
ex o
encryp tion</w>
ele vation</w>
e m-
domain- independent</w>
determin antal</w>
data flow</w>
dama ge</w>
correc tive</w>
con f
ci ph
ch art</w>
cc er</w>
bur y</w>
buff er</w>
back tracking</w>
b h
assemb ly</w>
ag ain</w>
acade mic</w>
whit ening</w>
wh en
when ever</w>
vi able</w>
un annotated</w>
ther mal</w>
th ir
ste erable</w>
st ering</w>
so ccer</w>
sk top</w>
sin r</w>
ro unding</w>
rele ased</w>
refin ing</w>
r df</w>
prun e</w>
prec eding</w>
over sampling</w>
oscillat or</w>
ori gin</w>
neuro science</w>
micro array</w>
metr ical</w>
max ent</w>
margin s</w>
informa tics</w>
industr y</w>
in efficient</w>
in coherent</w>
hed ral</w>
gaussi an
fric ative</w>
fe red</w>
evol ve</w>
ev ent
e th
e ing</w>
di -
de sktop</w>
de en
conver ting</w>
consist encies</w>
comp actly</w>
committe e</w>
carri ers</w>
can ce
cal tech</w>
c r</w>
as simil
ar y-
an ger</w>
advan tag
accumul ation</w>
abduc tion</w>
a- tional</w>
a ane</w>
9 2</w>
1 ,
vo tes</w>
unc ed</w>
un controlled</w>
treat s</w>
trans fer
tra de-
topo graphic</w>
test bed</w>
sur ing</w>
su ite</w>
spi kes</w>
speech /
sparsi ty-
sol vable</w>
sh e
ro n</w>
r d</w>
prag matic</w>
pes q</w>
paraphr asing</w>
par kin
onto logical</w>
ne l-
multic arrier</w>
multi- document</w>
morph ing</w>
mis alignment</w>
min utes</w>
lin -
jaco bian</w>
in hi
har v
ga thered</w>
fo ve
eaves drop
dru g</w>
deli ber
decre ased</w>
d at</w>
cra mer</w>
co variate</w>
centr ality</w>
c f</w>
bi gu
at tain</w>
argu ment
analog ical</w>
ag nostic</w>
acous tic
accumul ated</w>
uni gram</w>
trec vid</w>
tra jec
tion less</w>
tend ency</w>
synony m</w>
swit ch</w>
super imposed</w>
state-of- art</w>
spac ing</w>
simil ar
sc rat
revisi t</w>
reve aling</w>
resili ent</w>
regi ster</w>
r ics</w>
pus h
probabil is-tic</w>
pro p</w>
ono mies</w>
myop ic</w>
max sat</w>
lat est</w>
l ant</w>
k -based</w>
inten tions</w>
int ensi
in expensive</w>
guide lines</w>
g ency</w>
for ums</w>
exclu sion</w>
e b
dt w</w>
dis agreement</w>
cost- sensitive</w>
continu ation</w>
commit ment</w>
c ence</w>
c d
bri ef</w>
branch- and-
bin ding</w>
anom ali
anomali es</w>
5 0
4 6</w>
2 7</w>
0. 6
- ing</w>
zero- shot</w>
x- ray</w>
wf st</w>
w ro
uni fies</w>
trac ing</w>
ten s</w>
t ed-
sup ply</w>
sch itz</w>
s add
regres sor</w>
reciproc al</w>
re spir
re fr
per h
perh aps</w>
on ing</w>
m alization</w>
l re</w>
jo int
inspec tion</w>
imp lant</w>
i.i. d</w>
hands- free</w>
h ab
gen es</w>
gall ery</w>
exer c
ev it
ed ed</w>
distinc tions</w>
demonstr ations</w>
constitu ency</w>
condi tionally</w>
com ments</w>
co variances</w>
c us
b uc
ax es</w>
audio- visual</w>
au str
2 ,
weak er</w>
vocal ic</w>
un segmented</w>
tun e</w>
tree width</w>
tag gers</w>
swar m</w>
su -
seam lessly</w>
se m
se am</w>
scrip tors</w>
rot ating</w>
resour ced</w>
re ader</w>
r- rao</w>
qu ick</w>
pow ers</w>
pear son</w>
pal at
on sets</w>
n am</w>
motiv ates</w>
mo bi
mo -
micro -
me ters</w>
maxim ized</w>
loo k-
li fe
li am
judg ment</w>
interlea ving</w>
im it
ign oring</w>
ho t</w>
gra de</w>
game- theoretic</w>
ful l
fixed- point</w>
eri o
episo dic</w>
enco dings</w>
deli ver</w>
cul tural</w>
cryp to
cou ple</w>
conve y</w>
conv net</w>
const ell
commer ce</w>
clas s
bo t</w>
attain ed</w>
as p</w>
adm its</w>
a v</w>
8 5</w>
3 1</w>
10 -
- c
y or</w>
wro ng</w>
view -
ve ment</w>
un equal</w>
ul y</w>
two- way</w>
trunc ation</w>
transcei vers</w>
termin ation</w>
tele vision</w>
str ib
sn ap
smar t
sl ices</w>
situ ated</w>
s ul
roo ms</w>
ri al</w>
regul atory</w>
re targeting</w>
radio metric</w>
pr ices</w>
polynomial- time</w>
pc fg</w>
parallel ization</w>
no tation</w>
multi- armed</w>
mono phone</w>
model- ing</w>
mis -
microb log</w>
medi ated</w>
ma c</w>
lif el
lifel ong</w>
l uc
inter speech</w>
harmon icity</w>
h dr</w>
g u</w>
frame -based</w>
flo or</w>
ev c</w>
er ative</w>
ength ening</w>
enc lo
en- glish</w>
e ast</w>
dise ases</w>
constan ts</w>
comple ted</w>
chro matic</w>
bit ory</w>
bio metrics</w>
be gin</w>
at om</w>
asym metry</w>
assign s</w>
ar i</w>
al arms</w>
8 4</w>
z e</w>
z ation</w>
y a
ven tric
ty po
tri angle</w>
tour nam
tim ed</w>
t m</w>
sur vi
sup pl
stri ps</w>
ste gan
spe ed-
sn akes</w>
sle ep</w>
shif t-
sh ed</w>
se ss</w>
sali ence</w>
roo ts</w>
retain s</w>
reson ances</w>
redi strib
r nns</w>
r ated</w>
prohibi tive</w>
prob -
poly se
pl ain</w>
pho to-
pay off</w>
par zen</w>
p pe
opportun ity</w>
op port
o me</w>
non smooth</w>
moti f</w>
m ur
m b</w>
loc al-
lea der</w>
large- vocabulary</w>
id entication</w>
heur is</w>
glas s</w>
geometr ies</w>
frame -
f ru
f ab
expon ent</w>
ex change
enfor ced</w>
elec tion</w>
du plex</w>
discrim -
cross- modal</w>
cramé r-rao</w>
cra ft</w>
conver ts</w>
contra sts</w>
constrain t-based</w>
con formal</w>
compris es</w>
col location</w>
co- training</w>
bit -rate</w>
ban d-
adop ts</w>
w w
vir tually</w>
un necessary</w>
un able</w>
tob i</w>
super vectors</w>
sub class</w>
sr c</w>
si fier</w>
scan ned</w>
s light</w>
ri tic</w>
ri d
restor e</w>
reque sts</w>
re formulation</w>
polytop e</w>
pit ched</w>
pit ch-
one- to-
look ahead</w>
li ties</w>
l r
justi fied</w>
ju mp
interpol ating</w>
in ary</w>
ic ine</w>
found ed</w>
f on
f ish</w>
ent ary</w>
di ph
deli vers</w>
deci dable</w>
d ance</w>
curr icul
comput able</w>
com promise</w>
che ap</w>
bor ne</w>
bel ed</w>
avo ided</w>
as ked</w>
ap e</w>
ad voc
1 1.
- to
yiel ded</w>
war p</w>
turn- taking</w>
tit le</w>
te ams</w>
sv r
summar ize</w>
structur ally</w>
ste m</w>
speedu ps</w>
separ ates</w>
s v</w>
reli ef</w>
ran ks</w>
quaterni on</w>
pres entations</w>
pos sess</w>
opport unities</w>
of fered</w>
multiplic ations</w>
multi spectral</w>
memor yless</w>
li ers</w>
is a</w>
in evit
i th
grap hies</w>
fron tier</w>
expressi veness</w>
expon enti
en ter
electro de</w>
dur ational</w>
develop mental</w>
crowdsour ced</w>
compreh ensi
co o
clust erings</w>
cl ip</w>
chro no
chine se-english</w>
bodi es</w>
ar ma</w>
ak i</w>
ag it
advantag eous</w>
- tured</w>
v o</w>
v al-
sub sumption</w>
stro kes</w>
stor y
ste p
spi ke
sing ularities</w>
se eds</w>
scrip ts</w>
rend ered</w>
recei ving</w>
r ender</w>
qu eu
qu an</w>
po se-
periph eral</w>
par liam
pa id</w>
objec tness</w>
motiv ate</w>
modul o</w>
min i</w>
m yo
linear ized</w>
lin kage</w>
le ft-
l p
l bp</w>
l as</w>
justi fy</w>
j is
immedi ately</w>
illustr ates</w>
i dio
human oid</w>
ho le</w>
heterosced astic</w>
he ads</w>
h i</w>
f use</w>
f las
f i</w>
expan ding</w>
ex ible</w>
eigen -
dist ur
discrim i</w>
coun ter</w>
continu um</w>
constell ations</w>
composi tionality</w>
comp action</w>
comp ac
classi iers</w>
ch at</w>
cal ib
c ad</w>
bro ader</w>
b fgs</w>
b arrier</w>
avo idance</w>
al -based</w>
agit tal</w>
aggreg ating</w>
a war
0 7</w>
. .</w>
. ..</w>
win d</w>
whi spe
whispe red</w>
we red</w>
w -
voic e-
v ul
trig gered</w>
tex as</w>
termin ed</w>
ten sor
stre t
strati fied</w>
son gs</w>
sni ppe
ser vers</w>
schoo l</w>
regres sors</w>
refr active</w>
ra sta</w>
propor tion
promo te</w>
posteri or
posi tives</w>
pi ano</w>
parkin son</w>
paralingu istic</w>
off- line</w>
off ering</w>
notic eable</w>
multi- camera</w>
mo use</w>
minim um-
matri x-
libr aries</w>
kit ti</w>
k- nearest</w>
k le</w>
it ance</w>
in ve
im mediate</w>
gro ss</w>
gra in</w>
fil ler</w>
facto id</w>
en suring</w>
ellip so
copy ri
cong estion</w>
condi tion
comp li
comp iler</w>
colli sion</w>
clu sion</w>
awar eness</w>
attrib ution</w>
ap erio
analy sed</w>
an aph
9 8</w>
0. 7
windo wing</w>
whisp er</w>
we ar
vul ner
v ital</w>
uti lities</w>
uniqu ely</w>
un wanted</w>
tro n</w>
ton y
theore ms</w>
taxon omic</w>
task- specific</w>
sur round</w>
super position</w>
su n</w>
sing er</w>
sim d</w>
rig id
repeat edly</w>
ra tionality</w>
prob a-
play back</w>
phono logy</w>
p hi
obstac le</w>
now ad
nowad ays</w>
nearest- neighbor</w>
multi word</w>
maintain ed</w>
m ensi
ld pc</w>
l ity</w>
k nes
join ts</w>
in trac
impo ses</w>
i pat
hun garian</w>
higher- level</w>
gui ding</w>
gr u
g pus</w>
frame -level</w>
fa ith
expl aining</w>
er ment</w>
el ds</w>
el der
elder ly</w>
dis a
di ic
deduc tion</w>
de forming</w>
constrain ing</w>
con fu
composi tions</w>
code words</w>
co ron
cle an
circum scription</w>
chun k</w>
ch i
ch aining</w>
calcul i</w>
c aching</w>
belon gs</w>
b lan
an g</w>
advers ary</w>
ad- hoc</w>
ad am
ac e
2- norm</w>
. 5</w>
wi gn
web site</w>
vi ability</w>
vas cular</w>
un- supervised</w>
trans forma
tic ality</w>
tec ed
t ons</w>
syntac tically</w>
synony ms</w>
sub pixel</w>
so red</w>
slo ts</w>
ske w</w>
s lower</w>
s l</w>
s d
rejec t</w>
reco mb
q- learning</w>
point -
phone -based</w>
ph ar
p en</w>
o do
n ine</w>
mer -
man h
manh att
lis ed</w>
ipat ory</w>
inhi bitory</w>
in er
ic si</w>
has tings</w>
hamil tonian</w>
g ging</w>
g an</w>
formul ates</w>
filter -
er as
enhan cements</w>
enc y
disambigu ate</w>
combin atory</w>
chro ma</w>
cf g</w>
b ak
aurora- 2</w>
ar ts</w>
app er</w>
an teced
ab sor
a fore
4 00</w>
0 5</w>
y- to-
veloc ities</w>
ton ic</w>
suppres sing</w>
sub trac
struc -tured</w>
stic k</w>
ste ms</w>
sign s</w>
se me
ro ads</w>
re sizing</w>
re pairs</w>
random ization</w>
promo ting</w>
proba- bilistic</w>
prescri bed</w>
pre ven
pl ant</w>
per cent</w>
out-of- domain</w>
oc r</w>
normal izing</w>
modul ator</w>
mist ake</w>
micro soft</w>
m hz</w>
lo aded</w>
lab or</w>
ke l</w>
iz ability</w>
inter view</w>
inter sec
imper fec
h evc</w>
fil lers</w>
exc es
dr um</w>
direction- of-arrival</w>
direc tivity</w>
diic ult</w>
compres s</w>
comp rising</w>
circum stances</w>
cen tering</w>
bu ffe
branch-and- bound</w>
beam -
b on
astro no
ak y</w>
ag er</w>
ad ults</w>
-lim ited</w>
weak ly-
w ish
vi o
vari a</w>
ti ling</w>
tax onomies</w>
t edi
sub sampling</w>
stead y-
stan ford</w>
spac e
some what</w>
si ves</w>
se iz
se a</w>
scan ner</w>
sacrific ing</w>
s us
restric ting</w>
resi stant</w>
ren ew
regi on-
re tain</w>
re g</w>
radi os</w>
rad on</w>
r wth</w>
r ms</w>
r bf</w>
prote ins</w>
plau sibility</w>
ori c</w>
op posi
multi- target</w>
multi- object</w>
mono -
me g</w>
manipul ations</w>
lea ving</w>
lea ve</w>
k a</w>
it or</w>
inter rup
individu ality</w>
ib ility</w>
i di
homo geneity</w>
here in</w>
halluc ination</w>
gh ting</w>
ga ve</w>
g as</w>
fundam entally</w>
fo od</w>
fig ures</w>
distinguish able</w>
displac ements</w>
de bu
d of</w>
correl ating</w>
copyri ghted</w>
constit utes</w>
confi d
concentr ated</w>
com -
classi cation</w>
chun ks</w>
cas cades</w>
bench marking</w>
av ity</w>
automat on</w>
ate -based</w>
associ ate</w>
ar pa</w>
and- forward</w>
an o
72 9</w>
- o
web -
v 1</w>
thre ads</w>
tho rough</w>
t s
sust ained</w>
sub gradient</w>
str ip
stit ching</w>
speech es</w>
spati al-
sing s</w>
si fiers</w>
sch mid
ra m</w>
quanti fication</w>
prono unced</w>
pipel ines</w>
para -
opposi te</w>
om ics</w>
n i</w>
multiple- instance</w>
multi- party</w>
mu m
moun ted</w>
mosa ic</w>
minim ally</w>
middle bury</w>
mb r</w>
m o</w>
l f</w>
kn ap
knap sac
inter ferences</w>
in cur
h n</w>
h eli
ground -
fu jis
fit ness</w>
fin er</w>
fac ade</w>
f c</w>
ess ay</w>
embodi ed</w>
elec tions</w>
deteri or
de voted</w>
cor rob
concentr ate</w>
ch er
bo w</w>
bo ar
b au
ati s</w>
an ce-
a sive</w>
a a
9 7</w>
8 8</w>
25 6</w>
199 9</w>
199 6</w>
10 00</w>
wol fe</w>
web sites</w>
wear able</w>
vari eties</w>
un stressed</w>
transcei ver</w>
to tally</w>
ti le</w>
ter ized</w>
tedi ous</w>
sub glottal</w>
stor ing</w>
steady- state</w>
speech dat</w>
qu ar
pa th-
multi level</w>
mi gr
metro pol
medi al</w>
mat or</w>
mat o
margin alized</w>
mal icious</w>
lat tic
k i
junc tions</w>
interpre tability</w>
human- human</w>
h adam
fac e-
f es
ey e-
exo genous</w>
exec uted</w>
du plic
do t</w>
distinguish ed</w>
di gi
dep th-
d l
d /
cut off</w>
contrib uted</w>
coali tional</w>
co r</w>
ci an</w>
c 4</w>
bra in-
blin dly</w>
bh attach
believ ed</w>
ati n
al lo
al /
ad jec
3 8</w>
3 7</w>
/ sup</w>
vers a</w>
us al</w>
u tional</w>
tut or</w>
triang ul
tournam ent</w>
top y</w>
tic ally-
thu mb
therap y</w>
termin ology</w>
ta c</w>
succ in
succin ct</w>
su ms</w>
sp in</w>
simple st</w>
si on-based</w>
semi- definite</w>
sche mas</w>
ro und
resour ce-
priori tized</w>
pl en
physi o
phr asing</w>
nec es
neces sity</w>
multi- instance</w>
monoton icity</w>
mon g
med icine</w>
m un
loo se</w>
la un
kur to
j an
intrinsi cally</w>
in gr
ingr edi
ide ally</w>
hadam ard</w>
fra ming</w>
f- score</w>
f ting</w>
exemplar -based</w>
est i</w>
energ y-
electr icity</w>
dw t</w>
dro pping</w>
differ ing</w>
constr ic
concer n</w>
compens ating</w>
communic ator</w>
coh ort</w>
co res</w>
certain ty</w>
caltech -
bro ws
bloc kin
ben i
b a</w>
ati veness</w>
as h
anomal ous</w>
analyz ers</w>
al i</w>
air craft</w>
adequ ately</w>
a fr
6 4</w>
3. 5</w>
-ran king</w>
y in</w>
w iz
w a</w>
vie wer</w>
vesse l</w>
v a</w>
ure -based</w>
uni variate</w>
uc t</w>
uc ker</w>
transpar ency</w>
transmit ters</w>
transi tive</w>
transcri bing</w>
tran s</w>
t t</w>
symmetr ical</w>
step- size</w>
spo t</w>
so- called</w>
sn ake</w>
ske wed</w>
sha h</w>
se t-
schmid t</w>
ro unds</w>
restric t</w>
respir atory</w>
requ est</w>
proportion ate</w>
pro fil
pair ing</w>
p -based</w>
orthog on
of dma</w>
morphe mes</w>
mo ver</w>
ml ps</w>
memor y-based</w>
maxim um-
lin gs</w>
le s
large- margin</w>
kan ade</w>
k u
inher itance</w>
inf ers</w>
in jec
illumin ant</w>
high- speed</w>
he mi
harv esting</w>
gram -based</w>
general isation</w>
gener ators</w>
free base</w>
fe ret</w>
f 1-
f -based</w>
establish es</w>
ed /
dou bly</w>
distor tionless</w>
discrimin a-tive</w>
dis similar</w>
di ffe
decim ation</w>
data- dependent</w>
d on
curricul um</w>
cor dic</w>
continu e</w>
conflic ting</w>
c am
bur st
bhattach ary
ati o</w>
asynchron y</w>
asp ir
abduc tive</w>
wr apper</w>
vo ters</w>
vi le
un su-
unsu- pervised</w>
trip let</w>
tri focal</w>
trans fers</w>
trade- off</w>
tr ying</w>
tr uly</w>
tor -
t ent</w>
suit ability</w>
sour cing</w>
snippe ts</w>
sket ches</w>
semi- markov</w>
selec tional</w>
scrat ch</w>
respon sible</w>
respon d</w>
reser vation</w>
reli ghting</w>
re configurable</w>
r nn
q am</w>
prob- abilistic</w>
prin ted</w>
pri vile
pass age</w>
parametr ized</w>
pac -
ner ve</w>
mu r</w>
mong st</w>
mo ment
mis sed</w>
microb logs</w>
mensi onality</w>
mas sively</w>
map -
mani fe
l i</w>
l f
key phrase</w>
j en
i j
ho pe</w>
gra ded</w>
f ps</w>
experim ented</w>
exist ential</w>
es sing</w>
enrich ed</w>
eavesdrop per</w>
determin ant</w>
covari ates</w>
conti gu
context- sensitive</w>
conclu sion</w>
con jec
co gnition</w>
centro ids</w>
broad casts</w>
bro wn</w>
bl stm</w>
at titude</w>
arti ic
arri ve</w>
ar s</w>
appear ing</w>
appear ance-based</w>
an ony
ampli fy</w>
altern atively</w>
alit y-
a mongst</w>
4 8</w>
-r ich</w>
vocal izations</w>
vo ip</w>
visu al-
v ic
un balanced</w>
ul atory</w>
u wb</w>
tr a</w>
title s</w>
tim ator</w>
summar izing</w>
sk ip</w>
selec tor</w>
sadd le</w>
regular isation</w>
redistrib ution</w>
ran ker</w>
ra mb
profil ing</w>
privile ged</w>
prev ents</w>
predomin ant</w>
po p</w>
per cus
pen ing</w>
panoram a</w>
on omy</w>
o x
news wire</w>
multit one</w>
mess age-
memb ran
manhatt an</w>
ma mm
log o</w>
l ad
knapsac k</w>
kine matics</w>
k bit</w>
jam ming</w>
ht t
hetero geneity</w>
h y</w>
g g
fluores cence</w>
far- field</w>
fal ling</w>
ex ag
electro myo
el p</w>
e ping</w>
disturb ance</w>
discrim- inative</w>
discre tized</w>
dic tive</w>
d ays</w>
contro llable</w>
conflic ts</w>
con gru
compris ed</w>
compres sing</w>
choo ses</w>
c mllr</w>
bre w</w>
b ited</w>
artiic ial</w>
al isation</w>
80 2.
- ity</w>
ı ve</w>
zo om</w>
veri fying</w>
un wr
sugg es
sub tree</w>
sub tasks</w>
stoch as</w>
spl its</w>
spec t</w>
spe ak</w>
sour ced</w>
sket ching</w>
sen sed</w>
se-to- english</w>
regular ize</w>
reflec ting</w>
psycho linguistic</w>
prede termined</w>
pow er-
pl ate</w>
person alization</w>
pac k
net work
mp son</w>
manipul ating</w>
lip schitz</w>
lex ica</w>
instan ts</w>
innov ations</w>
inf ec
in st
hyperny m</w>
human- machine</w>
heal thy</w>
h al</w>
grou p-
go al-
geo graphical</w>
fujis aki</w>
exces sive</w>
exam ination</w>
erro r
e go</w>
disp arities</w>
discus sions</w>
deno ised</w>
de formed</w>
cyclo stationary</w>
custom ized</w>
cont ent-
connec tives</w>
concep tually</w>
compac tness</w>
commod ity</w>
comb at</w>
cifar- 10</w>
ce re
ca using</w>
bor ro
attain s</w>
attach ed</w>
atin g-
anch ors</w>
al z
5 1</w>
yo ung</w>
writ er</w>
vector -
unc lear</w>
tro py</w>
tree- to-
tomo graphic</w>
tin e</w>
tim ately</w>
tho mpson</w>
termin ological</w>
ta tionally</w>
suit ably</w>
succes sively</w>
sub- space</w>
st -based</w>
spec tive</w>
si a</w>
shor tening</w>
sen se
segment er</w>
seam less</w>
routin es</w>
reli ed</w>
parameter -
pac kage</w>
out lines</w>
noise less</w>
mu si
me rely</w>
manufac turing</w>
man age</w>
m ation</w>
lt l</w>
leve l-
learn able</w>
learn ability</w>
is ations</w>
intra- class</w>
inter connected</w>
imp lan
he brew</w>
h ur
h n
go l
ge o</w>
foc us
flas h</w>
fix es</w>
fin ger</w>
f li
f lec
f is
examp le-based</w>
event ually</w>
empha size</w>
ef ſ
draw ings</w>
dra ws</w>
descri p</w>
dend ritic</w>
d s-
d er-
cu r</w>
compres sible</w>
co pies</w>
circu mv
c at</w>
buffe t</w>
bran ches</w>
bin arization</w>
behavio urs</w>
bar k</w>
ati ve-
articul ations</w>
ap ol
al ter
3 /
-r atio</w>
ſ cation</w>
ws j
wign er</w>
weakly- supervised</w>
vi g
un usual</w>
un ited</w>
un expected</w>
un desired</w>
ul timate</w>
ul ls</w>
transi tivity</w>
thre at</w>
thon gs</w>
tex t-based</w>
tai w
t u</w>
suppres sed</w>
sub trees</w>
sub sampled</w>
su mes</w>
spac e-based</w>
sol a</w>
si onal</w>
rot ated</w>
reflec tive</w>
re produce</w>
pre positions</w>
pos ses
pat ro
over coming</w>
oscill ations</w>
organ ize</w>
op ens</w>
oce an</w>
observ ational</w>
mur mur</w>
mosa ics</w>
metropol is</w>
mar ker
manipul ated</w>
lu m</w>
ls a</w>
liter al</w>
le ven
inter sections</w>
initial ize</w>
in stability</w>
impair ments</w>
im er</w>
gr ace
gaz et
from- motion</w>
fail ed</w>
fa vo
extensi ble</w>
exc ess</w>
ess ence</w>
enumer ation</w>
ency clo
encour ages</w>
e quality</w>
de faults</w>
counter factual</w>
conver ters</w>
conto ur
clic ks</w>
clas s-based</w>
casc ading</w>
ber ke
band widths</w>
azim uth</w>
axio matic</w>
al locations</w>
ag ree</w>
9 3</w>
3 6</w>
0. 6</w>
0 6</w>
yp as
w is
tur ning</w>
tri ple</w>
transi tional</w>
th in
tempor al-
simpli fying</w>
scale- space</w>
sc ramb
s b
s ay</w>
reach ability</w>
prox y</w>
proposi tions</w>
predic tability</w>
permut ations</w>
pc m</w>
par ity</w>
p lot</w>
overl aps</w>
ori ent
one- class</w>
og i</w>
neighbo ur
n er-
n b</w>
mus cles</w>
multi- domain</w>
multi party</w>
morph able</w>
mat one</w>
kurto sis</w>
ke pt</w>
jaco bi</w>
ir radiance</w>
inver tible</w>
interpre ter</w>
input -
inflec ted</w>
inci dent</w>
inc enti
in definite</w>
in appropriate</w>
illumin ations</w>
i tion</w>
ho use</w>
he imer</w>
gib ility</w>
fic ient</w>
fi ber</w>
fac e
exhi bited</w>
ex -
em d</w>
ellip sis</w>
du c</w>
docu ment
discipl inary</w>
de line
cre aky</w>
conven tionally</w>
contin gent</w>
complex -valued</w>
compar ably</w>
classi ier</w>
bio informatics</w>
best- first</w>
berke ley</w>
ber n
be have</w>
b ypas
aver ages</w>
attrac tor</w>
at mo
appl i
alz heimer</w>
all pass</w>
afore mentioned</w>
adequ acy</w>
7 7</w>
1 4
z -
win ning</w>
voice less</w>
voc al-
v p</w>
un i</w>
u les</w>
transl ates</w>
text- dependent</w>
t uples</w>
synthesiz ers</w>
supr ase
suprase g
supraseg mental</w>
sto lic</w>
ste mming</w>
st bc</w>
speed- up</w>
s dr</w>
rigid ity</w>
ri es</w>
read able</w>
re projection</w>
pus h</w>
proble m-
predic ate-
point -based</w>
plac ing</w>
pl sa</w>
optim istic</w>
obli que</w>
not ch</w>
non- smooth</w>
no -
net working</w>
multi- stage</w>
mo tive</w>
metaph or</w>
m end
lst ms</w>
l engthening</w>
l an</w>
kar hun
it y
is land</w>
in stit
homo graphies</w>
hi p
hal f-
goo ds</w>
gazet te
exhi bi
exce ed</w>
e ma</w>
do c
distur ban
disturban ces</w>
display ed</w>
din al</w>
diagno ses</w>
dar k</w>
cr edit</w>
cor re
continuous -
confu sions</w>
co- channel</w>
chor d</w>
cep tible</w>
cau ch
br ute</w>
bau m-
bas s</w>
auto motive</w>
at or
ac -
abund ant</w>
9 4</w>
2 9</w>
16 -
1 5.
0. 3</w>
versati le</w>
turb ul
tru th
translat or</w>
tou ch</w>
templ ate-based</w>
t ucker</w>
t f
t ances</w>
t amp
sv m-based</w>
spe eding</w>
space time</w>
sol ar</w>
so li
signiic antly</w>
sever ity</w>
reg u</w>
refer ential</w>
recei ves</w>
read ings</w>
re venu
re ally</w>
ra tion
r b
ques tion
prim al-
plu g</w>
pixel -level</w>
normal ised</w>
message- passing</w>
membran e</w>
mark e
loo sely</w>
li qu
laryn geal</w>
key s</w>
jap ane
in- car</w>
impo stor</w>
imp ed
illustr ating</w>
id f</w>
hu ff
hi p</w>
gre en</w>
gam matone</w>
forward- backward</w>
foot ball</w>
expon ents</w>
entro p
en tr
el l</w>
e pit
e k
def ender</w>
de coupled</w>
context- independent</w>
conson antal</w>
con ll</w>
compo sing</w>
com for
coar ser</w>
chro ma
ch s</w>
bi g
back bone</w>
atten u
aes thetic</w>
6 5</w>
6 -
199 5</w>
1 2
0 8</w>
zer o
vol ati
vers al</w>
un transcribed</w>
un related</w>
tele communication</w>
str ing
ss l</w>
spec kle</w>
skele tal</w>
sh e</w>
sequ encing</w>
self- organizing</w>
se min
sci ences</w>
resi due</w>
res or
ra de
rade mach
rademach er</w>
q i</w>
propor tions</w>
prop bank</w>
primal- dual</w>
pres u
prefer able</w>
pr lm</w>
po d
perm it</w>
periodic ally</w>
path way</w>
p f</w>
or ti
o wing</w>
o graphic</w>
nar rati
multi band</w>
moder ately</w>
mil itary</w>
me te
lo v</w>
jud ged</w>
ir l</w>
illustr ative</w>
homo topy</w>
hel m
h -
gaus s-
fix ations</w>
expressi vity</w>
echo ic</w>
down sampling</w>
discrim i-
develo pers</w>
deno ted</w>
deciph erment</w>
de coupling</w>
da g</w>
d edu
cr u
contam ination</w>
conn dence</w>
confir ms</w>
compli ant</w>
coali tions</w>
ck y</w>
circul arity</w>
circul ant</w>
cepstr a</w>
cardio gram</w>
calibr ating</w>
cal ci
c ard</w>
by- synthesis</w>
broad ly</w>
bo lic</w>
bhattachary ya</w>
baum- welch</w>
b logs</w>
al locating</w>
ag e
ac tion-
3. 1</w>
3 9</w>
3 4</w>
199 7</w>
1 7.
1 6.
work flow</w>
viol ated</w>
v b</w>
tri -
trave ling</w>
trans coding</w>
tiv al</w>
time line</w>
supervis ory</w>
summar ized</w>
sugges tions</w>
spi ht</w>
speaker- specific</w>
sp ans</w>
so m</w>
simpli fies</w>
si gh
shap e-based</w>
sco red</w>
scan ners</w>
sc ape</w>
s tive</w>
res ort</w>
repor ting</w>
regular -
re play</w>
r p</w>
r ization</w>
path ways</w>
pas sed</w>
paragrap h</w>
oscillat ors</w>
o ro
o o</w>
non- overlapping</w>
non- monotonic</w>
non native</w>
net worked</w>
multi- frame</w>
mul tio
mor a</w>
moment um</w>
mobi l</w>
mo usly</w>
mer cer</w>
melo dic</w>
mar ization</w>
lt z</w>
low- cost</w>
k th</w>
it eness</w>
ir e</w>
in lier</w>
in form</w>
huff man</w>
ho ltz</w>
frequency- selective</w>
fil ms</w>
facilit ating</w>
f b</w>
extr apol
ev ent-
en or
emp h
diph thongs</w>
debu gging</w>
d op
cs -based</w>
cros sings</w>
cre ative</w>
bro ken</w>
b ers</w>
author ship</w>
austr alian</w>
assimil ation</w>
argument ative</w>
al locate</w>
ab il</w>
4 1</w>
199 4</w>
- tion</w>
vis ing</w>
ve c</w>
va sive</w>
un ordered</w>
un likely</w>
tre mend
ti digits</w>
tho roughly</w>
the me</w>
tex tural</w>
ten tion</w>
sy stolic</w>
sy mpto
sub- word</w>
sub ordin
sub modularity</w>
span ned</w>
sp a</w>
sim o</w>
sigmo idal</w>
si de-
search ed</w>
s wa
s ability</w>
ro l
read ers</w>
re turned</w>
re formulate</w>
rank- 1</w>
qui et</w>
quanti le</w>
puzz les</w>
prohibi tively</w>
pro active</w>
post processing</w>
plo sives</w>
p da</w>
odo metry</w>
ne tic</w>
mono lo
model- free</w>
mirro rs</w>
min ute</w>
mean- squared</w>
me lp</w>
mac rob
ma ke
m ers</w>
log ists</w>
li ving</w>
lever aged</w>
let ters</w>
l ite</w>
k ry
jo b</w>
iso map</w>
inter dependent</w>
intelli g
ini ties</w>
imp ly</w>
hund red</w>
hrt f</w>
helm holtz</w>
heav y-
ha z
gover ned</w>
fac ility</w>
experi enced</w>
exec uting</w>
echo es</w>
e u</w>
dysarth ric</w>
dis count</w>
di ar
de ened</w>
crow d-
cross- correlation</w>
conven i
cons orti
conjec ture</w>
con den
code word</w>
classifi es</w>
clas-si fier</w>
broad casting</w>
blu e</w>
bit ext</w>
bir ds</w>
bigu ation</w>
be ats</w>
be amp
beamp at
auth oring</w>
at r</w>
as- tic</w>
are -
analy tics</w>
aff inities</w>
a- posteriori</w>
2. 4</w>
- band</w>
wal ker</w>
vi vo</w>
verb mobil</w>
un know
ul timately</w>
tw ice</w>
track lets</w>
the- art</w>
t- ric</w>
ste ered</w>
state ment</w>
sp ar</w>
shrin king</w>
semi- automatic</w>
ri th
revisi ted</w>
redund an
real izing</w>
r ying</w>
r int</w>
r i</w>
r cc
produc tions</w>
predicate- argument</w>
po sing</w>
pixel wise</w>
ph ased</w>
ou ts</w>
open- source</w>
op tional</w>
oc ca
nucle i</w>
nec essi
mi mo-
man aging</w>
low pass</w>
long itu
loc ut
life time</w>
j aw</w>
inve stment</w>
in hibi
ima ged</w>
i- vectors</w>
i g</w>
human- robot</w>
high lighting</w>
hid den
hard ly</w>
glot t
geo -
g ang
filter banks</w>
fast est</w>
f le
exc ited</w>
el ling</w>
disper sive</w>
discrimin ants</w>
dic ho
dic ally</w>
di a</w>
decision- theoretic</w>
crimin ant</w>
constric tion</w>
constrain s</w>
confir mation</w>
confi g
cham fer</w>
cap on</w>
c qa</w>
c ab
burst y</w>
bracke ting</w>
blo b</w>
billi on</w>
bern stein</w>
bar gaining</w>
b eng
assi stan
an t-
5 3</w>
- tor</w>
w ish</w>
vari -
val ent</w>
under going</w>
un folding</w>
un available</w>
two -layer</w>
trip les</w>
th ick
te en</w>
synthesi sed</w>
sub- optimal</w>
sub scri
styl istic</w>
structure- from-motion</w>
spo ts</w>
spati ally-
shift- invariant</w>
sens ori
semi parametric</w>
scen e-
roo ted</w>
res cal
regular ly</w>
recogn izes</w>
re stored</w>
r inging</w>
pro s
prim ing</w>
pre valent</w>
pin yin</w>
phar yn
persist ence</w>
percus sive</w>
perce ive</w>
pd fs</w>
pal mp
open- domain</w>
one-to- one</w>
o t</w>
nor mative</w>
no table</w>
network -based</w>
neighbour hood</w>
necessi t
narrati ves</w>
n c</w>
multi- speaker</w>
morph ism</w>
mo ther</w>
mi -
match ings</w>
mat te</w>
low- power</w>
loo ks</w>
lif y-
le mma
le gi
know s</w>
iz ation-based</w>
inte l</w>
instan ce-based</w>
infin ity</w>
inf eri
inferi or</w>
iner tial</w>
indic ative</w>
in tra
in fer
imp acts</w>
il inear</w>
i w
hypothe size</w>
hip po
hand held</w>
go ssi
glo t</w>
gang li
gal ax
form alized</w>
flu ent</w>
finit ely</w>
fal ls</w>
ex posed</w>
ent y</w>
e ff
dy -
discre te-
disambigu ating</w>
dis til
diier ential</w>
d ar</w>
cross- entropy</w>
cra mer-
convol u</w>
consorti um</w>
con ll
compil ing</w>
com promising</w>
coch le
class room</w>
ch i-
brows er</w>
br al</w>
bi o</w>
begin s</w>
beampat tern</w>
back end</w>
ation /
at las</w>
assistan ts</w>
aperio dic</w>
amp lify-
am or
al titude</w>
aggreg ates</w>
adop tion</w>
adjec tives</w>
ad c</w>
accep t</w>
5 k</w>
3/ 4</w>
z ones</w>
z one</w>
wish art</w>
where in</w>
vig net
u gu</w>
u c</w>
train ment</w>
to red</w>
ter ior</w>
team work</w>
tack led</w>
t y-based</w>
survi val</w>
succes ses</w>
sub- pixel</w>
studi o</w>
stac ks</w>
stabil ized</w>
sr i</w>
spon t
source- channel</w>
si a
shar pening</w>
sentim ents</w>
s ought</w>
s ort</w>
resi stance</w>
reser vo
reg ulation</w>
reduc ed-
re put
radi ation</w>
quantiz ing</w>
quadrati cally</w>
pre pa
pre fer</w>
por ting</w>
pl ur
pay offs</w>
patch -based</w>
particip ating</w>
p an</w>
ord er-
ol ar</w>
non lin</w>
nn -based</w>
multi- objective</w>
mi ds
main stream</w>
m ically</w>
longitu dinal</w>
len ses</w>
language- specific</w>
language- independent</w>
lam b
l u</w>
kry lov</w>
inte gers</w>
inf ants</w>
in spir
impro per</w>
im e</w>
il le</w>
hyper bolic</w>
hippo camp
hi t</w>
heavy- tailed</w>
gl rt</w>
forec a
fab ric
fa ul
exclu sively</w>
excit atory</w>
epo chs</w>
enfor cement</w>
emph atic</w>
ei gend
e tal</w>
dr astic</w>
differenti ation</w>
di min
d ances</w>
craw ling</w>
contigu ous</w>
conduc ting</w>
comput a</w>
compe t
co co</w>
clim ate</w>
character -based</w>
brid ging</w>
bre ad
brain- computer</w>
blo bs</w>
bi grams</w>
be fore
back- off</w>
bab el</w>
b jective</w>
attemp ted</w>
at &
at& t</w>
an ti
am il</w>
adap tations</w>
ab normality</w>
a des</w>
8 7</w>
8 1</w>
2. 1</w>
1. 6</w>
1. 2</w>
vio lation</w>
vignet ting</w>
v ous</w>
ul tra-
transl uc
trans action</w>
thous and</w>
thick ness</w>
ther n</w>
tele conferencing</w>
te st-
t ap
su uc
stoch as-tic</w>
sto res</w>
st one</w>
ssi m</w>
speci fies</w>
sor ted</w>
sha res</w>
sensori motor</w>
self- calibration</w>
scat te
sa ve</w>
s ls</w>
run -time</w>
revenu e</w>
reg -
re ti
re m
quasi- newton</w>
quanti sation</w>
pre- trained</w>
pre conditions</w>
postul ates</w>
po ly</w>
po e
patho logy</w>
palmp rint</w>
oc ar
multi- band</w>
md ct</w>
man- made</w>
look- ahead</w>
local iza</w>
loc ked</w>
lo y
lo s</w>
lin ed</w>
lim it
le sc
laun ay</w>
lar s</w>
jud ges</w>
isol ate</w>
inter locut
instit ute</w>
in consistencies</w>
in adequate</w>
imp rec
high- frequency</w>
heur istically</w>
hand crafted</w>
ha w
gu ard</w>
gen omic</w>
frag mentation</w>
fav or</w>
fac tory</w>
exponenti ated</w>
ex tra
eci ents</w>
dy s
dispar ate</w>
discrimin atory</w>
discrimin ability</w>
dimensi on
di lemma</w>
di ac
deb ate</w>
cu p</w>
cri ti
corrup tions</w>
context- aware</w>
con currently</w>
co uples</w>
clo se-
clas-si fiers</w>
ch ess</w>
cauch y</w>
c n</w>
bud ge
block -based</w>
bloc ked</w>
bi variate</w>
betwe en-
bel l</w>
back- propagation</w>
attac ker</w>
ating- point</w>
ar ized</w>
ap pr
ap par
analysis- by-synthesis</w>
amplify- and-forward</w>
4 9</w>
4 2</w>
3. 0</w>
1/ 4</w>
0. 4</w>
y our</w>
variab le
ur able</w>
un limited</w>
un cover</w>
u .
u -
tu be</w>
t ori
swe eping</w>
spectr ally</w>
si m</w>
shi ps</w>
rou ght</w>
ro id</w>
ro -
rever sed</w>
restor ing</w>
resor ting</w>
regar ds</w>
r t-
r it
put ationally</w>
proto typing</w>
promp t</w>
progra mm
prin ting</w>
post ure</w>
physi ology</w>
phone me
perm itted</w>
parallel ized</w>
p sola</w>
p edia</w>
orac les</w>
oppon ents</w>
o be
n y</w>
multio bjective</w>
motiv ations</w>
min gly</w>
mim ic
mee ts</w>
manipul ate</w>
man i</w>
man eu
ma -
m ized</w>
low- frequency</w>
lexi co
lac king</w>
l sh</w>
k y</w>
ject ories</w>
it h</w>
is s</w>
influ ential</w>
in ability</w>
im mer
im ization</w>
idio syn
i v
hmm -
hi stories</w>
haus dor
grass mannian</w>
flexib ly</w>
fes tival</w>
exhibi ting</w>
estim a</w>
e off</w>
distinguish es</w>
dis counting</w>
differenti ate</w>
dic t
dem o</w>
dele tions</w>
damp ed</w>
d ential</w>
cy cl
custom ers</w>
cramer- rao</w>
conver ging</w>
conv in
conjunc tions</w>
compe tit
co segmentation</w>
classi- fier</w>
cf o</w>
calib rate</w>
ca p</w>
b un
b rought</w>
approxim ator</w>
alph a-
all- pole</w>
adverti se
abstr acted</w>
a- priori</w>
a sian</w>
a ec</w>
7 2</w>
ï ve</w>
z il
win now</w>
wi se-
water marks</w>
wal ls</w>
vec torial</w>
variab le-
v t</w>
unwr apping</w>
tu mor</w>
transfer able</w>
tra ver
tr ami</w>
tiz ing</w>
ti p</w>
th ings</w>
tel ugu</w>
t t
t ably</w>
t /
synthe tically</w>
swe ep</w>
sust ain
surve ys</w>
spir al</w>
spar ser</w>
sou th</w>
sla b</w>
single- view</w>
ser ving</w>
sc al</w>
ro no
repeti tions</w>
refin ements</w>
red e
recomb ination</w>
provi ders</w>
prepar ation</w>
pred i
polyg onal</w>
poly hedral</w>
pl l</w>
photo graph</w>
phi lo
peak ed</w>
patro l</w>
pac ed</w>
p h</w>
p ca
oscil lation</w>
ol der</w>
oc ta
obser vers</w>
non trivial</w>
ni r</w>
neuro imaging</w>
na ïve</w>
multi pitch</w>
mids agittal</w>
mi al</w>
ma ster</w>
ma gni
m g
land scape</w>
labor at
la stly</w>
jo in</w>
j un
inter- frame</w>
in liers</w>
imprec ise</w>
implic ation</w>
ima gin
identi fiable</w>
iden tically</w>
i ally</w>
hel ping</w>
heal th
h s
gmm- ubm</w>
found ations</w>
fic ation-based</w>
fi f
fa st-
eras ure</w>
entic es
ent er</w>
encompas ses</w>
eeci ently</w>
decep tion</w>
de- noising</w>
de launay</w>
cr atic</w>
contain ment</w>
com mo
co lo
ch at
ce p</w>
car ving</w>
car rying</w>
beng ali</w>
bel trami</w>
bed dings</w>
be the</w>
back- end</w>
autono mously</w>
autom ate</w>
atmo spheric</w>
at o</w>
appr entices
analy sing</w>
an echoic</w>
an c</w>
ad mit</w>
ad mini
ac commo
ac ci
a th
a o</w>
a .
8 3</w>
5 5</w>
199 8</w>
0 4</w>
-redu ce</w>
within- class</w>
weak ness</w>
viol ations</w>
ventric le</w>
v on</w>
v 2</w>
under stand
un it-
trim med</w>
ti s</w>
t amil</w>
suppl ied</w>
st ft</w>
spike -
spi rit</w>
sp hin
si t</w>
sho pping</w>
sh ake</w>
s un
ro c
reservo ir</w>
res tim
reposi tories</w>
rend ers</w>
rem edy</w>
refin es</w>
reco gni
read -
re pul
re min
re iter</w>
ra o-
ra ises</w>
quanti ser</w>
proto typical</w>
prob ably</w>
pre processor</w>
poo led</w>
phy lo
per vasive</w>
para- metric</w>
p n</w>
p g</w>
over- fitting</w>
o z</w>
o ffici
nucle us</w>
n mt</w>
n l</w>
multi- pass</w>
mis o</w>
maxim isation</w>
maxim in</w>
m ds</w>
m 2
lu tional</w>
lo co
linear- time</w>
lim si</w>
lab ial</w>
l tered</w>
ke ying</w>
itu -
interven tions</w>
interfer ence-
inter mit
inter actively</w>
in exact</w>
hyper graphs</w>
ho lo
h ulls</w>
ground- truth</w>
gen u
g c</w>
fro beni
for gery</w>
fo il</w>
flo ating-point</w>
fix ed
fis her
f s
emer ge</w>
eeci ency</w>
ed ited</w>
e o
disco ur
dig it
diac ri
design er</w>
deci d
de mosaicing</w>
de feasible</w>
dan ish</w>
cylin dr
corrob orate</w>
con sci
con cor
comp elling</w>
communic ating</w>
com b</w>
co ecients</w>
bi- directional</w>
b o</w>
b ench</w>
at yp
at titu
asp ec
appro ach
apprentices hip</w>
appe ared</w>
analo gies</w>
air borne</w>
afr ican</w>
adju sts</w>
accep tability</w>
a h</w>
8 9</w>
8 6</w>
6 7</w>
3. 3</w>
2- dimensional</w>
1. 1</w>
wide- band</w>
visual izing</w>
vir tu
tremend ous</w>
transi ents</w>
ton o
to gram</w>
task- oriented</w>
tab ular</w>
t z
swa p</w>
sum- product</w>
ste ep
st amp
spl ice</w>
sia mese</w>
short coming</w>
redundan cies</w>
reco g</w>
re usable</w>
r is</w>
preven ting</w>
predi stor
posses ses</w>
portfoli os</w>
plan arity</w>
pic king</w>
phon ation</w>
ono metric</w>
one- shot</w>
ocar di
o gy</w>
normal ize</w>
nl g</w>
multi- antenna</w>
multi disciplinary</w>
multi component</w>
multi -rate</w>
mis pronunciation</w>
mer ges</w>
memor ability</w>
mc ts</w>
mas ked</w>
magne to
m ization</w>
m ge</w>
likeli hoo
legi timate</w>
jpe g
j ec</w>
iz ational</w>
intr ic
interfe rer</w>
instanti ation</w>
informa tional</w>
in variances</w>
in stitutions</w>
ima ge
im mun
i o
i id</w>
hypothe tical</w>
he res</w>
h d
gras p</w>
graph ically</w>
gn izer</w>
ga ther</w>
g v</w>
g ist</w>
frobeni us</w>
four -
flec tance</w>
far si</w>
f mpe</w>
exerc ise</w>
exec ute</w>
enc ap
em itting</w>
ellip tical</w>
elimin ated</w>
ee ect</w>
eci ency</w>
e mul
disa ster</w>
deduc tive</w>
d mt</w>
d fs</w>
cu bo
corre lo
connec ts</w>
conll -
confi dent</w>
comp ile</w>
coar se-
class- specific</w>
ci ties</w>
chine se-to-english</w>
categor y-
campai gn
c l</w>
bur sts</w>
automa ting</w>
at al</w>
asser tions</w>
argu ed</w>
ar te
antic ipatory</w>
anat omy</w>
align er</w>
al tered</w>
adap tion</w>
adap tability</w>
ac tu
ab er
9 1</w>
8. 5</w>
8 6.
5 6</w>
5 4</w>
4 /
199 3</w>
0 3</w>
- tors</w>
work load</w>
wil d
who le-
war ps</w>
w y
vol un
vari abilities</w>
valu e-
v y</w>
unknow ns</w>
uni modal</w>
un ov</w>
uc b</w>
two- level</w>
tran eous</w>
to a</w>
time- invariant</w>
ti tion
the matic</w>
termin istic</w>
tele communications</w>
te l</w>
te ager</w>
syntac tical</w>
sub stitutions</w>
sub division</w>
stron gest</w>
si -
sel fish</w>
seiz ure</w>
samp lin
sa id</w>
ro utes</w>
ro usly</w>
ro ll</w>
repe ating</w>
relax ing</w>
real isation</w>
re fraction</w>
re formulated</w>
re conc
r na</w>
r ats</w>
q os</w>
protec t</w>
pro log</w>
prim ate</w>
pre- defined</w>
pre ading</w>
post er</w>
physi cs-based</w>
photo graphic</w>
ph o</w>
pd dl</w>
p i</w>
neuro morphic</w>
ne y
n izer</w>
molec ules</w>
ml n</w>
mix t
mis es</w>
min i-
mil e</w>
mi a</w>
marker less</w>
m ality</w>
ly ap
loo ked</w>
lo bes</w>
ll ed</w>
li preading</w>
less ons</w>
kee ps</w>
k ol
k in</w>
k bs</w>
j ig
jig sa
itu- t</w>
inv en
inv asive</w>
interpol ate</w>
inter play</w>
inten tional</w>
inhibi tion</w>
info max</w>
inevit able</w>
il ing</w>
hyp ony
gu essing</w>
gu -l
group ings</w>
gover n
geodesi cs</w>
geo location</w>
gen er</w>
flu x</w>
exclu sive</w>
ex traneous</w>
ev al</w>
enor mous</w>
electro n</w>
electro cardiogram</w>
ee ects</w>
duplic ate</w>
do as</w>
differ entially</w>
degra ding</w>
de ficiency</w>
de alt</w>
d fe</w>
cylindr ical</w>
cur ve
cre mental</w>
correl ation-based</w>
convin cing</w>
conv o</w>
collec tively</w>
cogni tively</w>
closed- loop</w>
clo sing</w>
ciph ers</w>
character -level</w>
cc d</w>
boo sts</w>
bak eoff</w>
b ular</w>
auto- encoder</w>
at traction</w>
associ ating</w>
assi stive</w>
assess ments</w>
ampli fication</w>
al g
acoustic- phonetic</w>
abs ent</w>
a que</w>
8 9.
8 7.
7 4</w>
6 0
3. 2</w>
3 d-
2 nd</w>
1. 4</w>
0 1</w>
-l at
- domain</w>
α -
w ers</w>
vocal- tract</w>
vo rono
vorono i</w>
visual ize</w>
visi t</w>
video -based</w>
vector -based</w>
v is</w>
ur y</w>
uni fy</w>
un explored</w>
un compressed</w>
trig onometric</w>
trig gers</w>
to x
tin g-
tel l</w>
tack ling</w>
t of</w>
subjec tively</w>
su d
stegan ography</w>
st ments</w>
st es</w>
speech-to- text</w>
smo other</w>
sk i</w>
sign ic
si n</w>
sec tor</w>
schedu ler</w>
samp le-
rol lou
ro i</w>
ri g</w>
reverber ated</w>
resili ence</w>
requi site</w>
reput ation</w>
recomm end</w>
rec ip
re write</w>
r é
r m</w>
qu ali
pyra mi
pyrami ds</w>
pursu e</w>
probabil istically</w>
pro state</w>
prac tition
pixel -wise</w>
photo graphy</w>
ph y</w>
pat rolling</w>
pack ages</w>
pac king</w>
p .</w>
occur red</w>
n ice</w>
mt l</w>
migr ation</w>
ment -based</w>
me ll
marke ting</w>
mar tin
ma ils</w>
lingu istic
lab s</w>
l c</w>
k lt</w>
jump ing</w>
iter ates</w>
inter lac
inser ted</w>
inflec tional</w>
in distinguishable</w>
im a</w>
hyper planes</w>
homo genous</w>
ho ll
highligh ted</w>
high- performance</w>
hand- held</w>
half tone</w>
h its</w>
gradu ate</w>
form ats</w>
fluctu ation</w>
filter- bank</w>
f t
f st</w>
f ran
f d
evo ked</w>
encap sul
en trainment</w>
elab or
eigend e
ed itor</w>
dysarth ria</w>
ds r</w>
depend ency-based</w>
decid ability</w>
cross word</w>
cri tic
cr ed
copy right</w>
conve yed</w>
contex t-based</w>
competi tions</w>
compet ence</w>
compe te</w>
commer ci
cir cles</w>
chec ker</w>
bid ding</w>
bi o-
bi level</w>
au ght</w>
ar cs</w>
an ima
altern ation</w>
accord ance</w>
accompan ied</w>
acceler ating</w>
a sion</w>
a am</w>
3. 4</w>
2. 6</w>
1- bit</w>
1 4.
0. 8</w>
y l</w>
wor ker</w>
water marked</w>
w in</w>
vi bra
ure- ground</w>
un realistic</w>
un predictable</w>
un natural</w>
un less</w>
typ e-
two- class</w>
tut orial</w>
te sian</w>
tamp ering</w>
tag set</w>
syste m-
synthesi ser</w>
sum ma
sub structures</w>
sub space-based</w>
str y</w>
state-of- the-art</w>
speech -based</w>
spar se-
skele tons</w>
sk ip
si onality</w>
scar city</w>
s ad
ron y
revisi ting</w>
resyn thesis</w>
regular izing</w>
regi stering</w>
recti fier</w>
ra ised</w>
r -based</w>
pur ity</w>
ps r</w>
propag ates</w>
proce eds</w>
preced ence</w>
po lish</w>
phr ase
per su
per mission</w>
p ec
ortho graphy</w>
organ s</w>
organ izational</w>
on- the-
offici al</w>
nor th</w>
non- trivial</w>
modi ied</w>
minim isation</w>
max out</w>
mat ure</w>
lyap unov</w>
ly- used</w>
lo sing</w>
le v
lattic e-based</w>
l loy
jan us</w>
inven tion</w>
inher its</w>
in directly</w>
igno res</w>
id a</w>
hu b
ho o</w>
gran ger</w>
gra dual</w>
gaussian ity</w>
g /
fin ance</w>
f r</w>
ess ays</w>
equival ently</w>
episo des</w>
epi le
elic it</w>
electroencephalo gram</w>
ele v
el on
eco logical</w>
do w
divi ding</w>
discar ding</w>
dis similarities</w>
dis ordered</w>
dat apo
d ental</w>
crypto graphic</w>
cruc ially</w>
core l</w>
copul as</w>
conven tions</w>
contras ting</w>
comple ments</w>
co p</w>
clean ing</w>
clari fication</w>
chroma ticity</w>
chro minance</w>
chan nel-
carri es</w>
car tesian</w>
cance l</w>
c ts</w>
c ms</w>
c itations</w>
bu s</w>
brea thing</w>
bin o
aut onomy</w>
audi tion</w>
articul ography</w>
arran ged</w>
ap i</w>
anaph oric</w>
ac rony
ac elp</w>
abbrevi ations</w>
a ac</w>
8 2</w>
7 6</w>
4 7</w>
2d- 3d</w>
1. 0</w>
-l aw</w>
ya hoo</w>
work flows</w>
wik i
we e
vector -valued</w>
v ads</w>
tor ization</w>
tin g-based</w>
text ure
ten n
t ted</w>
t -reduce</w>
syllab le-
suuc ient</w>
sub categorization</w>
stan ds</w>
st e</w>
st .
sp p</w>
sp m</w>
son or
si p
shif t-reduce</w>
semi- blind</w>
self- similarity</w>
sco pes</w>
s re
s ms</w>
robo cup</w>
recommend ed</w>
re tail</w>
re en
random ness</w>
r ace</w>
pot ts</w>
pit man</w>
percep tions</w>
pc fgs</w>
particip ation</w>
paragrap hs</w>
p end
oph onic</w>
onto log
on-the- fly</w>
norm al-
na p</w>
n ally</w>
multi- robot</w>
mpeg- 7</w>
mb er</w>
m2 vts</w>
m wf</w>
long- distance</w>
lis -
knes er</w>
ke y-
k at
joint -
is p</w>
invol vement</w>
ic ations</w>
i i
i fold</w>
ho sp
great est</w>
gener a</w>
free- form</w>
fe c</w>
famili arity</w>
epo ch</w>
elab orate</w>
eigen voices</w>
e ster</w>
e e</w>
ds l</w>
document -level</w>
do ors</w>
d pll</w>
cr b</w>
constan t-
com promis
co ld</w>
co ck
clari fy</w>
cl ar
circumv ent</w>
ci ents</w>
che by
categor ized</w>
categor ize</w>
calcul ates</w>
bin ning</w>
attemp ting</w>
appro aching</w>
an thro
an a</w>
ag end
af ter
adju stments</w>
ad jective</w>
ad a</w>
acoustic -to-
ac counted</w>
a e
: /
:/ /
9 6.
8 4.
7 9</w>
6 6</w>
5 7</w>
1 50</w>
0- word</w>
/ hmm</w>
y wo
wy ner</w>
web page</w>
vide o-
vi se
uti lis
un la</w>
ul i
trans form
the mes</w>
tenn is</w>
t aught</w>
t ari
surpr ise</w>
sur f</w>
succe eds</w>
subordin ate</w>
stere ophonic</w>
steep est</w>
state-of- the</w>
stand alone</w>
st ap</w>
some thing</w>
snap shots</w>
sl t</w>
si veness</w>
shel l</w>
sh u
segment -based</w>
satur ated</w>
satis fiable</w>
s ers</w>
rich ness</w>
repl ica</w>
repeat ability</w>
reconstruc ts</w>
recogn ising</w>
reason er</w>
re produc
rando m-
ra ke</w>
quantiz e</w>
ps f</w>
promp ts</w>
promo tional</w>
pro fit</w>
preco ders</w>
pre- training</w>
pre conditioning</w>
posi tively</w>
piece wise-
pi x</w>
physio logically</w>
philo soph
pharyn geal</w>
ph at</w>
pe er-
p tion</w>
p mc</w>
out standing</w>
oper ated</w>
op tics</w>
oc -
non- deterministic</w>
non- adaptive</w>
non negativity</w>
non deterministic</w>
no de-
ner vous</w>
n m</w>
multi- source</w>
multi sensor</w>
multi body</w>
miti gating</w>
mat h</w>
mar ine</w>
manipul ator</w>
macrob lock</w>
mach in
m ite</w>
loco motion</w>
lo qu
liqu id</w>
line -
lin- ear</w>
lf w</w>
k r</w>
jpeg 2000</w>
jen sen</w>
it o</w>
it ar</w>
intersec ting</w>
inter oper
indic ation</w>
in f</w>
imperfec tions</w>
han kel</w>
guarante eing</w>
gu itar</w>
gu ess</w>
gramma ticality</w>
finite- dimensional</w>
factor izations</w>
factor -
exce eding</w>
entrop y-based</w>
engine ers</w>
en rich</w>
dri fting</w>
dn f</w>
discrimi- native</w>
disc ard</w>
dis advantages</w>
diffe o
di es</w>
detec tability</w>
deplo ying</w>
dc f</w>
d ation</w>
cumul ants</w>
crow ds</w>
contin ual</w>
confi dences</w>
concep tu
con curr
comple ment
col locations</w>
co- occurrences</w>
classi- fiers</w>
character izations</w>
c br</w>
biom echan
ba sically</w>
b u</w>
b ling</w>
aurora 4</w>
at ch</w>
astrono my</w>
arran gements</w>
are r</w>
ap ha
ampli fier</w>
adap table</w>
achi e
ac knowled
a er
20 k</w>
0. 7</w>
0 2</w>
-r cb-</w>
' em</w>
y er</w>
wan g</w>
w l</w>
viol ate</w>
vari a-tional</w>
un familiar</w>
un changed</w>
un ambiguous</w>
turbul ence</w>
tri ed</w>
transluc ent</w>
time- delay</w>
ti e</w>
termin o
tain ment</w>
t c</w>
syn set</w>
syn dro
sympto ms</w>
sv c</w>
sus ceptible</w>
sugg estion</w>
sub vector</w>
sub sumes</w>
st ors</w>
squ are-
sp ort</w>
sp heres</w>
si r</w>
shado wing</w>
sad ness</w>
s me
ris k-
rigo rously</w>
retain ed</w>
remain ed</w>
rele van
re gu-l
re eec
rao- blackwel
projec tors</w>
pre position</w>
polyse mous</w>
point -to-
pic k</w>
pi lots</w>
para fac</w>
p nlms</w>
occu p
oc cl
ob sc
o wn
ny i</w>
nomi als</w>
no ted</w>
na il</w>
n ger
mut ation</w>
mor ph</w>
monoton ically</w>
mo ses</w>
mixed- initiative</w>
min istic</w>
mim ic</w>
micro scopic</w>
mani fol
lu tin
log ging</w>
loc ks</w>
leg is
lad der</w>
label ers</w>
l 1-norm</w>
k- nn</w>
jud ge</w>
it arian</w>
ish ed</w>
is o</w>
inter dependencies</w>
int ents</w>
il svr
holl ywo
ho me
heli cop
health care</w>
hap tic</w>
hand sets</w>
ha mp
h a</w>
gr y</w>
genu ine</w>
g host</w>
g er-
fix point</w>
fi duc
fac ades</w>
extre ma</w>
esti -
entail s</w>
eng ag
engag ement</w>
en tic</w>
en su
el uc
ego -
e z
e ler</w>
ds- cdma</w>
distinc tiveness</w>
dis am</w>
dialec tical</w>
decep tive</w>
de t</w>
de mixing</w>
d ds</w>
curv atures</w>
cumul ant</w>
cro pping</w>
cou gh</w>
correlo gram</w>
cop ying</w>
concaten ating</w>
computer- assisted</w>
col orization</w>
co d
cl oning</w>
cl aimed</w>
character isation</w>
ch a</w>
centr e</w>
cance ler</w>
bund les</w>
before hand</w>
attitu des</w>
at orial</w>
aspir ation</w>
anim ent</w>
ail ing</w>
ag ent-based</w>
ag ency</w>
accompan ying</w>
accomp animent</w>
ac tor-
ab ol
7 -
6 3</w>
6 2</w>
5 2</w>
1. 7</w>
1. 3</w>
- g
work shop</w>
we al
w asser
vo ter</w>
veri ication</w>
ven s</w>
up sampling</w>
under specified</w>
under go</w>
un solved</w>
un la-
un de
truth ful</w>
triangul ated</w>
time- dependent</w>
ti ve
ti bility</w>
thir d-order</w>
texture less</w>
ten sion</w>
ten ed</w>
tal ks</w>
tack les</w>
super modular</w>
ster n</w>
step wise</w>
star ted</w>
st ated</w>
spont aneously</w>
spe lled</w>
spar -
spar- sity</w>
sp d</w>
soci ety</w>
single- image</w>
single ton</w>
she v</w>
shape- from-
selec tions</w>
see mingly</w>
respec ts</w>
rec ru
real izes</w>
real izable</w>
re using</w>
re u
re actions</w>
re -ranking</w>
ra me
ra dar
r an</w>
prob ing</w>
pro li
proli fer
plen optic</w>
plan ted</w>
plan ned</w>
pl us-
pit ches</w>
piec e-
phone tics</w>
pers on-
p ts</w>
p ings</w>
or th
one- pass</w>
objec t-based</w>
non- zero</w>
non- standard</w>
non e
neuro physiological</w>
mum ford</w>
multiplex ed</w>
multip ly</w>
multi fractal</w>
motiv ating</w>
mean- shift</w>
me tony
maj orization</w>
lon gest</w>
logarith m</w>
local iza-tion</w>
lo se</w>
lloy d</w>
lexico graphic</w>
lexic o</w>
le m</w>
knowled ge-
k ws</w>
k a
it ters</w>
isotro py</w>
is k</w>
inter frame</w>
initial izing</w>
in er</w>
illustr ation</w>
ill- posed</w>
id 3</w>
i ra
ht ml</w>
hel d-
hausdor ff</w>
h m</w>
h exag
h dp</w>
h d</w>
gui des</w>
gn ess</w>
gar ch</w>
full band</w>
frac tionally</w>
for -
fig ure-ground</w>
f l</w>
exchange ability</w>
entity -
econ omics</w>
ec ra
du b
do ff</w>
distrib ute</w>
distil lation</w>
distan t-
di vide
di men</w>
de par
db ns</w>
d well</w>
d sp
conc avity</w>
comfor t</w>
com ment</w>
cogn ate</w>
co- clustering</w>
chi- nese</w>
ch ime</w>
cer ti
ce le
categor izing</w>
cardin al</w>
bino mial</w>
behavio ural</w>
bat ches</w>
base band</w>
ban king</w>
ban ded</w>
back wards</w>
ax ial</w>
auto- regressive</w>
auto epistemic</w>
at a</w>
arri vals</w>
an to
air port</w>
aff ine-
accent ual</w>
acceler o
a st
a ero
802. 11</w>
7 3</w>
6 00</w>
4 3</w>
3. 8</w>
3 20
2. 7</w>
- tual</w>
zil ian</w>
x or</w>
ww w</w>
whi st
wasser stein</w>
vt r</w>
voic ed/
vi ous</w>
trip lets</w>
trib utional</w>
tree-to- string</w>
track ing-
tool box</w>
ther mo
ter ization</w>
tan gen
t dma</w>
t ary</w>
syndro me</w>
swit ches</w>
summar izes</w>
strateg y
str ained</w>
speci alization</w>
sparsi fying</w>
sm c</w>
sle pi
sk y
sinuso id</w>
similar ity-based</w>
si ve-
sequ ence-
scal p</w>
samplin g-based</w>
s and
ré nyi</w>
res cue</w>
re viewed</w>
re searches</w>
re parameterization</w>
r c</w>
r c
question- answering</w>
quan -
pur ch
proc ru
prin ter</w>
piece- wise</w>
pic k
ph anto
pc s</w>
parliam ent</w>
parameter izations</w>
par abol
pa y</w>
p un
out-of- sample</w>
oscillat ory</w>
om p</w>
occl u</w>
objec tively</w>
o metric</w>
not ori
none theless</w>
noise- free</w>
neur al-
neu tr
n ings</w>
mor al</w>
modul ators</w>
minim izer</w>
min uti
mean- field</w>
me ant</w>
m we</w>
m ical</w>
ly rics</w>
low- pass</w>
lou d</w>
loc us</w>
loc ality-
lis ting</w>
lim b</w>
lic ense</w>
li ed</w>
lan e</w>
l ends</w>
k l-
invent ories</w>
intui tions</w>
intermit tent</w>
initi ated</w>
incur s</w>
in tractability</w>
in k
i x
i ono
i /
hyper cube</w>
hidden -
held- out</w>
haw kes</w>
gur ation</w>
gu al</w>
gre y</w>
gra y-
gossi p</w>
gend er-
gaussi an-
g as
frame- by-
frame-by- frame</w>
fra u
flu ents</w>
fe tal</w>
exemp li
exchange able</w>
ex ci
evol ved</w>
ev en
et ary</w>
es l</w>
enrich ing</w>
enco der-
empha sizes</w>
electroencephalo graphy</w>
ec tion</w>
e tic</w>
dub bed</w>
do l
differenti ated</w>
determin ism</w>
deb ates</w>
coo king</w>
constan tly</w>
congru ent</w>
conf usability</w>
con soli
compar atively</w>
coher ently</w>
cohe sive</w>
clust er
clo seness</w>
chec ks</w>
chan ge-
campaign s</w>
brid ges</w>
bra zilian</w>
blu e
blac k-
bi fur
auto- encoders</w>
aug ments</w>
ar c
approach ed</w>
an ni
am p</w>
altern ates</w>
ak ur
ak in</w>
ag m</w>
accent uation</w>
a me
a /
9 9.
9 4.
6 9</w>
1. 8</w>
0. 2</w>
-r ization</w>
- cal</w>
zo om
yn er-
yner- ziv</w>
y i</w>
wor ld
wiz ard</w>
win ners</w>
wik tionary</w>
wide- baseline</w>
wh ite
wh el
weal th</w>
w yner-ziv</w>
vulner able</w>
volati lity</w>
vibr ato</w>
vesse ls</w>
verb net</w>
v esti
u k
translat ors</w>
transcri be</w>
too th</w>
to grams</w>
tec tures</w>
t aps</w>
sy n</w>
surro und
super resolution</w>
summ a</w>
succ inc
sub surface</w>
sp lit
sp am
so c
snap shot</w>
sl m</w>
si mal</w>
seman tic
sel dom</w>
scrip tor</w>
scienti sts</w>
s .
ri ori</w>
resemb le</w>
res ale</w>
represent er</w>
rejec ted</w>
regular iza</w>
recurr ence</w>
rec ap
re war
re tro
re pub
r ss</w>
r mse</w>
q p</w>
prolifer ation</w>
prepa red</w>
prefer ential</w>
predistor tion</w>
practition ers</w>
phr ase-
pho ton</w>
pe ers</w>
pass ages</w>
pap r</w>
pa d</w>
p as</w>
p 2p</w>
over whel
out lined</w>
one- out</w>
om ni</w>
octa ve</w>
o ve
non- linearity</w>
non- intrusive</w>
nes sed</w>
narrow -band</w>
n t</w>
n r</w>
n mf
mpe g
modul ating</w>
mo od</w>
magni fication</w>
ma r</w>
m v</w>
m src</w>
lst d</w>
lish ing</w>
lic ing</w>
le e</w>
l ized</w>
l eng
ker nel-
k rip
k h
jigsa w</w>
ite simal</w>
it akur
intellig ently</w>
ingredi ent</w>
in tox
in ria</w>
in finitely</w>
imped ance</w>
idi om</w>
ho pping</w>
happ ens</w>
gu n</w>
ga c</w>
g ical</w>
g ering</w>
fron tend</w>
fr ance</w>
fe l</w>
f res
f b
f amo
exec ut
es /
enti st</w>
ent ang
emer gent</w>
embed s</w>
em itter</w>
ellipso id</w>
ecra ft</w>
dy sp
du eling</w>
divide -and-
diier ence</w>
delay -
decim ated</w>
damp ing</w>
con formant</w>
computer- aided</w>
competit ors</w>
compan ion</w>
col or-
coh en</w>
cochle a</w>
co- variance</w>
co occurrence</w>
chrono usly</w>
ch en</w>
ch e</w>
cancel ing</w>
boar ds</w>
bin atorial</w>
bic lu
ber ant</w>
be it</w>
be ams</w>
bay es-
b psk</w>
b ar</w>
av at
auth entic</w>
aurora- 4</w>
asym metrical</w>
approxim ators</w>
appro val</w>
anni hil
anne aled</w>
an n
ama s</w>
al ve
al er
advoc ate</w>
adap tor</w>
acoustic-to- articulatory</w>
acceler ates</w>
a sic</w>
8 8.
5. 1</w>
4 4</w>
26 4/
2- bit</w>
0. 9</w>
-l ite</w>
-l ight</w>
- tro
é s</w>
y or
y east</w>
well- known</w>
wave guide</w>
voic email</w>
visi on-based</w>
vi z</w>
ve lum</w>
variable -length</w>
unla- beled</w>
un suitable</w>
u -l
tw enty</w>
tur bo
tu bes</w>
tin y</w>
time- variant</w>
time ly</w>
tern ary</w>
ten -
te ach</w>
tangen tial</w>
t es
sud den</w>
sub task</w>
sub sequence</w>
su sp
speech/ non-speech</w>
spec ic</w>
spe c</w>
ser vo
sch o
s rs</w>
s as</w>
s al
rig idly</w>
reve lation</w>
resemb les</w>
rejec ting</w>
real ism</w>
re start</w>
re pairing</w>
re ads</w>
ra ising</w>
ra d</w>
queu e</w>
query- by-
propo sition</w>
pre positional</w>
post ures</w>
pl s</w>
pl ing</w>
phono tac
phen o
per tain
pear l</w>
parti tion
parti ally-
parame t</w>
p space</w>
or ative</w>
optim ised</w>
obtain able</w>
obser ves</w>
obli vious</w>
o u</w>
normal iza</w>
neglec ted</w>
nas als</w>
n ant</w>
mon ths</w>
modi fies</w>
modi fier</w>
mini ature</w>
min ority</w>
mim ics</w>
mat ors</w>
man y-to-
machin ery</w>
m w
m u</w>
ligh t-
lea ve-
ld c</w>
jec t</w>
iz z
iz ation-
ir respective</w>
inver ting</w>
integr ity</w>
inspir ation</w>
in vo
in visible</w>
impos sibility</w>
imp lied</w>
image- level</w>
idiosyn cratic</w>
id able</w>
ic e-
ic ally-
ic -based</w>
i arpa</w>
hop field</w>
histo gram-based</w>
hed onic</w>
gradi ent-
gra vity</w>
gover ning</w>
g c
function alities</w>
flic ker</w>
ff s</w>
f ake</w>
expon entials</w>
exp time</w>
ent- specific</w>
energ y-based</w>
en ch
ell ular</w>
dri ves</w>
distan ce-based</w>
dis semin
deterior ates</w>
demo graphic</w>
dele ted</w>
deen e</w>
de ficient</w>
d u</w>
d ls</w>
d ag
cros so
correspon d
coron ary</w>
cor r
convolu tions</w>
continuous -valued</w>
contex tually</w>
consum ers</w>
config ured</w>
con su
complement arity</w>
comp u</w>
comp any</w>
comm ent
co vari</w>
caltech- 101</w>
calci um</w>
cal ler</w>
bo ts</w>
bio chemical</w>
billi ons</w>
bal ances</w>
b as</w>
aw gn</w>
audit or
at rial</w>
as king</w>
anthro po
anteced ent</w>
al located</w>
6 8</w>
5. 5</w>
1 7
0. 1</w>
-r educ
- sive</w>
wal sh</w>
view -based</w>
vibra tions</w>
ut tering</w>
use less</w>
ur ably</w>
un normalized</w>
un avo
ul tra
tu ple</w>
transm its</w>
transforma tion-based</w>
tor so</w>
token ization</w>
to- peer</w>
to my</w>
thumb nail</w>
thre e
thesaur i</w>
techno logical</w>
taiw anese</w>
ta -
t our</w>
syllab ification</w>
sur gery</w>
succe ed</w>
sub goals</w>
sub carriers</w>
struc tive</w>
ste g
st r</w>
st on</w>
spar ql</w>
smart phone</w>
sing ularity</w>
si d</w>
se as
scramb ling</w>
s ent</w>
ro- bustness</w>
ris ks</w>
recurr ing</w>
recogn is
rec ur</w>
re vised</w>
re cher
recher che</w>
rank- one</w>
ran ial</w>
question- answer</w>
question na
problem- solving</w>
power -law</w>
pol arities</w>
pixel -based</w>
pi ed</w>
phone me-
perio do
per- pixel</w>
per tin
peer- to-peer</w>
pay ments</w>
pay ment</w>
parliam entary</w>
panor amas</w>
ox ford</w>
non- iterative</w>
n it
n ano
multi- path</w>
multi- output</w>
mell in</w>
meas urable</w>
margin -based</w>
mar ching</w>
map reduce</w>
machine- learning</w>
ma kers</w>
m s-
l si</w>
l cd</w>
iso morphic</w>
is l</w>
inste in</w>
inser tions</w>
initial isation</w>
in- vehicle</w>
in disp
indisp ens
indispens able</w>
i- cal</w>
i vector</w>
hu e</w>
hrt fs</w>
hon en</w>
heur is-tic</w>
her mite</w>
half ton
glo ss
g sc</w>
g da</w>
frag mented</w>
foot age</w>
foo t</w>
fix ing</w>
fec tive</w>
famo us</w>
fal se-
faith fully</w>
f rank</w>
ey e
extre mal</w>
expan ds</w>
enjo y</w>
eng aged</w>
end -
emer gency</w>
elic ited</w>
edge- preserving</w>
domin ates</w>
distant- talking</w>
di r
devi ate</w>
deno min
deli vered</w>
de- scriptors</w>
de l</w>
d .
cyclo stationarity</w>
convo -l
conv nets</w>
contribu ting</w>
contin gency</w>
con es</w>
compens ates</w>
comm a</w>
colli sions</w>
co prime</w>
co planar</w>
co ping</w>
cli ents</w>
cd hmm</w>
c p-
budge ted</w>
bre ast</w>
blue tooth</w>
block model</w>
bl ast</w>
big ger</w>
bal lo
b b
aver age-
at ari</w>
assemb led</w>
aper tures</w>
anteced ents</w>
anony mous</w>
and roid</w>
analysis- synthesis</w>
allevi ates</w>
air flow</w>
abil -ity</w>
a b</w>
5 8</w>
4- point</w>
2. 2</w>
0 9</w>
. 0</w>
zero- forcing</w>
z an
work station</w>
wor th</w>
we yl</w>
water shed</w>
util itarian</w>
un preced
un observable</w>
u l</w>
tun able</w>
tro u
tran spo
tit ling</w>
threshol ded</w>
t- specific</w>
t r</w>
t ms
tms 320
t l</w>
synap se</w>
summar iza</w>
succes sor</w>
sub titling</w>
sub carrier</w>
stic k-
statis tic
spe l
so on</w>
shar p
sense val-
sens or
rough ness</w>
resyn the
restric ts</w>
reproduc ible</w>
renew al</w>
reli ance</w>
reg- ularization</w>
radi x-
proof ness</w>
pre requisite</w>
pre condition
post filter</w>
polyse my</w>
poin ted</w>
ple as
pick up</w>
pi vo
p- norm</w>
p n
o red</w>
non- parallel</w>
non linearly</w>
non lin-ear</w>
natural istic</w>
multi- image</w>
multi sensory</w>
mp s</w>
mo u
minim ising</w>
mimo- ofdm</w>
mi les</w>
lutin ative</w>
los ure</w>
logic -based</w>
lo ads</w>
ligh ts</w>
lic en
lexi co-
lex ically</w>
leak y</w>
land mark
lab eler</w>
k .
justi fications</w>
jud gement</w>
j ob
intru sion</w>
intric ate</w>
inter- speaker</w>
inter- class</w>
instanti ated</w>
image /
ib o</w>
hypothe si
hy -
hu mor</w>
hs mm</w>
hexag onal</w>
hetero genous</w>
halfton ing</w>
h u</w>
graphe mes</w>
graph ers</w>
govern ment</w>
go ro
gen o
g li
flat tening</w>
faith ful</w>
fac to</w>
f an</w>
expres ses</w>
excep tions</w>
ex p</w>
eu ler</w>
epi de
end re</w>
end points</w>
enclo sing</w>
eco c</w>
divide-and- conquer</w>
differenti ating</w>
dic ity</w>
deplo y</w>
demo graphics</w>
de blocking</w>
d cop</w>
covari -
cooper ating</w>
contex tu
conclu ded</w>
con- volutional</w>
competi tively</w>
cm v</w>
cheby shev</w>
car to
c far</w>
c alization</w>
c ake</w>
buc ket</w>
broad ca
break down</w>
bottlenec ks</w>
bi spectrum</w>
be l</w>
b utter
b order</w>
ati ve
arri ving</w>
appli ances</w>
amor tized</w>
al ter</w>
al ling</w>
al beit</w>
affor dances</w>
ac y-
a- tions</w>
7 9.
3. 9</w>
10 ,000</w>
/ sub</w>
- gram</w>
ℓ 1</w>
yo ho</w>
world wide</w>
wol f</w>
wis dom</w>
windo w
wee ks</w>
vl ad</w>
valid ating</w>
un aligned</w>
two- pass</w>
tu mo
tri p</w>
tracking- by-
topo log
ton e
ton -
tion al-
tio temporal</w>
ther to</w>
text ure-
teach ers</w>
tax i</w>
tac tical</w>
t ls</w>
svr g</w>
suppres ses</w>
suff ering</w>
stop band</w>
st sa</w>
st i</w>
spatial- temporal</w>
soci o
si vity</w>
short list</w>
sh te
servo ing</w>
ser ved</w>
sensi ble</w>
se eded</w>
resol ves</w>
renew able</w>
rel a</w>
refer ent</w>
rec tional</w>
ra -
quanti fier</w>
put ting</w>
put ative</w>
proso dically</w>
procru stes</w>
proce ed</w>
prob it</w>
pred ic</w>
posterior grams</w>
po lis-
pl ication</w>
per sian</w>
p on
op ac
non- euclidean</w>
non- cooperative</w>
nois y-
ni ght</w>
nel l</w>
neighbo urs</w>
n- hmm</w>
n mr</w>
n ess
multi- word</w>
multi stream</w>
modi ication</w>
minuti ae</w>
min ib
mi di</w>
metro polis-
memb er
me tal</w>
me re
mathema tics</w>
match ed-
man t</w>
log- spectral</w>
local- ization</w>
loc ates</w>
liter als</w>
lin ess</w>
li ves</w>
let ter
leg endre</w>
lap top</w>
lan g
l -based</w>
karhun en</w>
k its</w>
j up
j ones</w>
iw slt</w>
iso metry</w>
is i</w>
interlea ve</w>
inter reflections</w>
inter i
in frequent</w>
in correctly</w>
ill a</w>
il legal</w>
ide alized</w>
ic p</w>
hyperny my</w>
hyperny ms</w>
hy dro
hu b</w>
homo logy</w>
hin d
high- precision</w>
high ly-
hier o</w>
hi therto</w>
har m
happ en</w>
h lda</w>
group wise</w>
gran ularities</w>
grace ful</w>
glas ses</w>
gh z</w>
g m</w>
fol ded</w>
fiduc ial</w>
fa ç
f law</w>
evol ves</w>
evi d
ev al
eri an</w>
enter pr
eng age</w>
encryp ted</w>
electro des</w>
ek f</w>
eigende composition</w>
eigen functions</w>
eg g</w>
e th</w>
e missions</w>
e an</w>
distan tly</w>
dis sip
des k</w>
deline ation</w>
dead line</w>
de ter</w>
de gener
d ensi
d au
continu es</w>
cons ul
concentr ates</w>
con tract</w>
con ge
compo se</w>
comp rise</w>
commit ments</w>
co l</w>
co il</w>
circu it
che mi
ch er</w>
cen sored</w>
cas ual</w>
c +
c+ +</w>
bread th</w>
bor n</w>
bootstr apped</w>
ber lin</w>
back prop</w>
auth ority</w>
audi ence</w>
atyp ical</w>
attain able</w>
associ ates</w>
ar c-
ap -
an tony
ambigu ation</w>
am bis
alve olar</w>
ally- motivated</w>
allevi ating</w>
alle n</w>
al go</w>
al bu
agre ements</w>
agend a</w>
ag o</w>
ad mission</w>
ad ers</w>
acoustic- prosodic</w>
acces sing</w>
abbrevi ation</w>
a ic</w>
264/ avc</w>
26 3</w>
2. 8</w>
2. 3</w>
wit nessed</w>
w mt</w>
virtu e</w>
va gue</w>
v it
v cv</w>
v an</w>
ur l</w>
unpreced ented</w>
uniform ity</w>
ular ized</w>
two- phase</w>
trans versal</w>
tra jec</w>
tono tes</w>
tim ings</w>
tim ators</w>
tigh tness</w>
ti k
thin king</w>
ter i
tensor -based</w>
tele scope</w>
tel ling</w>
t- to-
t boxes</w>
t an</w>
t .
surro gates</w>
sub- nyquist</w>
sub channel</w>
sp in
sp ent</w>
sou thern</w>
sli des</w>
sigh an</w>
si cs</w>
shu ff
semi ring</w>
sel y-
sa ito</w>
s ung</w>
s gmm</w>
s f</w>
rid ges</w>
repe at</w>
regres sions</w>
reco ver
rec -o
re print</w>
re act</w>
r bm</w>
query-by- example</w>
public ations</w>
public ation</w>
progra m
pro tru
presu med</w>
pre training</w>
prac tic
posi t</w>
po i</w>
plan ts</w>
pl a
phylo genetic</w>
pec uli
patch match</w>
particip ated</w>
parti als</w>
paralingu istics</w>
par ties</w>
pain tings</w>
pa in</w>
over ly</w>
out -
op sis</w>
on tonotes</w>
off- policy</w>
occlu -
o urs</w>
nor -
non speech</w>
non -l
nmf -based</w>
ni ke</w>
nas alization</w>
multi- core</w>
morph isms</w>
mo goro
mis leading</w>
minim izers</w>
min es</w>
mess aging</w>
mat tes</w>
martin gale</w>
m allows</w>
lower- dimensional</w>
limit ed-
leave- one-out</w>
learn ing-
lay outs</w>
label me</w>
l te</w>
krip ke</w>
k- svd</w>
jup iter</w>
ject ory</w>
j fa</w>
inter related</w>
inst abilities</w>
in o</w>
i f
hin ts</w>
head set</w>
gram -
ger man
ge tic</w>
gar b
garb age</w>
g ec
front- ends</w>
frequ entist</w>
fr i</w>
foreca sts</w>
ff ts</w>
f p</w>
f el
exhaus tively</w>
er a</w>
encoder- decoder</w>
elon gated</w>
ellip se</w>
elic iting</w>
electromyo graphic</w>
di pole</w>
di lation</w>
desi re</w>
denomin ator</w>
de af</w>
d ents</w>
cylin der</w>
crosso ver</w>
corr entropy</w>
coron al</w>
conceptu alization</w>
coinci de</w>
coher ency</w>
co articulatory</w>
cla usal</w>
chemi stry</w>
capac ities</w>
c q
c pm</w>
bo ston</w>
black- box</w>
bin arized</w>
bi d</w>
bas que</w>
arte facts</w>
arch ite
arch e
apha sia</w>
an gi
all ed</w>
al phone</w>
al izes</w>
al co
ain t</w>
advers aries</w>
achie vement</w>
acces ses</w>
ac s</w>
abund ance</w>
abstr active</w>
a il</w>
a es</w>
a a</w>
6 1</w>
4. 5</w>
3 g
3 d
199 2</w>
199 0</w>
zer nike</w>
yor k</w>
weigh t-
we instein</w>
voic ex
voicex ml</w>
versati lity</w>
ver ication</w>
v ap
ur n</w>
unavo idable</w>
u. s</w>
two- channel</w>
tr ation</w>
top- k</w>
too k</w>
to- right</w>
to- 3d</w>
tissu es</w>
til ity</w>
ti facts</w>
thro at</w>
t v
t box</w>
sv r</w>
sur gical</w>
subscri ber</w>
styl ized</w>
stick- breaking</w>
steg analysis</w>
state- dependent</w>
spon sored</w>
sphin x</w>
spec ul
spar se
sour ce
so lo
sin e-
shte in</w>
sh ou
sen one</w>
semi- structured</w>
sat el
satel lit
s am</w>
ro la</w>
res hap
repul sion</w>
repub lish</w>
replic ate</w>
remo tely</w>
regular- ization</w>
recogn ise</w>
reco g-
reciproc ity</w>
rec ast</w>
reach able</w>
rando mis
radar s</w>
r ation</w>
quantiz a</w>
pu pi
pupi l</w>
promp ted</w>
promo tes</w>
pol lution</w>
pol ari
polari metric</w>
pit man-
pitman- yor</w>
philosoph y</w>
periodo gram</w>
percep tu
percei ving</w>
penal izing</w>
penal izes</w>
pen alization</w>
part ners</w>
par i
pal ate</w>
pa let
p prlm</w>
over looked</w>
origin ating</w>
oper ative</w>
op -
od d</w>
notori ously</w>
no d
neur o</w>
nam ed-
n ic
n es</w>
n ation</w>
my ocardi
monit ored</w>
mon e</w>
mo ore</w>
mi e</w>
methodo logical</w>
mete oro
met -r
met-r ics</w>
memor y-
max- sat</w>
mar s</w>
make up</w>
maj or
ma les</w>
low- order</w>
low ering</w>
li ft</w>
left- to-right</w>
lan ds</w>
laborat ories</w>
label ings</w>
key frame</w>
inv ali
interfe rers</w>
inter nally</w>
input- output</w>
index es</w>
in nn
in coherence</w>
il a</w>
i res</w>
i b</w>
hu b-
ho using</w>
hippocamp al</w>
hemi sphere</w>
helicop ter</w>
he igh
harm ful</w>
har ris</w>
har d-
guar ded</w>
graphe mic</w>
ge min
fru stration</w>
form -
for d-
fixed -length</w>
fin der</w>
fe ar</w>
factor iza</w>
f rank-
extrac tions</w>
ex am</w>
evi dent</w>
evi dences</w>
even ly</w>
essi bility</w>
error- correcting</w>
er ence</w>
entro pies</w>
english -to-
encyclo pedia</w>
en vy</w>
emplo y
em itters</w>
eli gibility</w>
ego motion</w>
efſ cient</w>
eeec tiveness</w>
dri vers</w>
do g</w>
divi sive</w>
diversi fied</w>
dis advantage</w>
direc tive</w>
di phones</w>
detec table</w>
dedu ced</w>
de couple</w>
de correlating</w>
cross- view</w>
conveni ently</w>
contradic tion</w>
conden sation</w>
concurr ency</w>
compromis ed</w>
col oring</w>
co eecient</w>
circuit ry</w>
cho le
chi ps</w>
ch an</w>
ch air</w>
ch -based</w>
certi fic
cere bral</w>
cat astro
c sit</w>
c q</w>
bound ed-
bit rates</w>
biomechan ical</w>
bi as
be ar
b ord
b l</w>
b bn</w>
azim u
atten tion-based</w>
ation- invariant</w>
as so</w>
archite c</w>
analog -to-
allow able</w>
align s</w>
ak a</w>
adju stable</w>
adap tivity</w>
accumul ate</w>
accommo dates</w>
acc essibility</w>
abstr acting</w>
a. k.
7. 5</w>
7 1</w>
6 d</w>
4 -d</w>
19 .
/ background</w>
-lay ered</w>
ſ nger
x m2vts</w>
wri tings</w>
wor k-
whit ened</w>
we stern</w>
wat ch</w>
vo lution</w>
vo coders</w>
view ers</w>
van illa</w>
ure -of-
uni directional</w>
un satisfactory</w>
ui uc</w>
tree- bank</w>
tr aps</w>
tour ist</w>
tms320 c
tik hon
tikhon ov</w>
ti modal</w>
t ent
sustain ability</w>
super tagging</w>
sub channels</w>
string ent</w>
ster ov</w>
st a
spel lings</w>
sp ring</w>
sp reads</w>
sound ness</w>
sol o</w>
sh eds</w>
sh all</w>
search -based</w>
sch wa</w>
sch iz
schiz oph
schizoph ren
satis fi
sac ca
sacca dic</w>
s ql</w>
s f
s ending</w>
s alt</w>
rollou t</w>
ri val
represent ativeness</w>
replac es</w>
reinfor ce</w>
recogn ised</w>
re planning</w>
re estimation</w>
rank- 2</w>
ra tions</w>
ra c</w>
r as
qu est</w>
q bf</w>
pyra mid
pro pri
prev ailing</w>
prepar e</w>
prac tices</w>
pra gue</w>
por tal</w>
poly phone</w>
plo sive</w>
pl ate
pipel ining</w>
phanto m</w>
periph ery</w>
para unitary</w>
pa -
p l</w>
p enc
over- complete</w>
obe y</w>
o s
o od</w>
ny u</w>
noun -
non- projective</w>
non verbal</w>
non circular</w>
no se</w>
neglec t</w>
nec k</w>
ne sterov</w>
nam ical</w>
n t
n ps</w>
n gram</w>
n atives</w>
mus cular</w>
multi- way</w>
multi- condition</w>
multi way</w>
ms d</w>
mono syllabic</w>
mer t</w>
mb er
mar quar
manag ers</w>
m tf</w>
m h</w>
luc as</w>
low -rate</w>
loc king</w>
li dar</w>
le sions</w>
lar ization</w>
lamb da</w>
lag s</w>
l pc
ko honen</w>
knes er-
key phrases</w>
ker -
ira qi</w>
interoper ability</w>
interestin gness</w>
inter dependence</w>
inter change
inter ac
integr als</w>
inevit ably</w>
incur red</w>
incre men</w>
in sec
in effective</w>
in don
imagin ary</w>
ic ality</w>
high way</w>
head line</w>
he si
har t
h itting</w>
h is-
gu ing</w>
grammar -based</w>
gi ga
gest alt</w>
gazette er</w>
g d</w>
fove a</w>
foreg round
fluctu ating</w>
flat ness</w>
ffic es</w>
favo urably</w>
f uses</w>
ex changes</w>
esse l</w>
es cap
enter tainment</w>
ent i</w>
end point</w>
enclo sed</w>
en lar
ed ge
ed -rank</w>
docu ment-
dl -lite</w>
dissemin ation</w>
display ing</w>
discre tiz
dis rup
di vides</w>
di soc
deploy ments</w>
deli vering</w>
de correlated</w>
de c</w>
d/ 3d</w>
curve let</w>
cubo ids</w>
cu ed</w>
cr y
controll ability</w>
comple ting</w>
collabor ate</w>
co- segmentation</w>
co ver
co a
cl ick
ciph er</w>
ci r</w>
char ge</w>
ch emo
cen ter-
cancel ers</w>
cam bridge</w>
cal ling</w>
c ks</w>
c b</w>
c avity</w>
c .</w>
br inging</w>
br dfs</w>
borro wing</w>
bo dy-
blur ry</w>
bi ophy
beam space</w>
b s
b low
axi om</w>
attain ing</w>
assi sting</w>
articul o
articul ator
arti stic</w>
ar tic</w>
anima tions</w>
and- or</w>
anch oring</w>
al- ity</w>
al ist</w>
agg lutinative</w>
ag ile</w>
adaboo st.
accep ts</w>
8 00</w>
7. 8</w>
6. 5</w>
3. 7</w>
3. 6</w>
3 2
3 ,
2 d
1. 9</w>
-r isk</w>
ö b
öb ner</w>
y /
word- to-
wi red</w>
we ar</w>
wave length</w>
wave front</w>
wave -
wat son</w>
vulner ability</w>
volun te
voiced/ unvoiced</w>
view- invariant</w>
utter ance
un even</w>
uc k</w>
typo logy</w>
tis ation</w>
tic ulatory</w>
th iness</w>
t l
summar izer</w>
summar isation</w>
sub str
struct ure-based</w>
stere opsis</w>
stegan ographic</w>
spo tter</w>
spectro scopy</w>
speci ied</w>
speci ically</w>
sound field</w>
soci ally</w>
si g</w>
sharp ness</w>
self- training</w>
se mis
sco re-
scale- invariant</w>
sar cas
sarcas m</w>
s w</w>
s 2
rith mic</w>
ric ian</w>
reti no
reson ant</w>
relax es</w>
regres sion-based</w>
re- estimation</w>
re trained</w>
rcc 8</w>
ra il
r fs</w>
q rs</w>
ps y</w>
promis es</w>
progres ses</w>
pro -
priv acy-
pred ec
pr i</w>
pot enti
post- filter</w>
pos -
poly hed
plus- noise</w>
plur ality</w>
play out</w>
plac ke
pho -
ph as
patho logies</w>
pat ent</w>
parame t-ric</w>
paradig matic</w>
para m</w>
p 2</w>
optim izer</w>
nn lm</w>
neuro logical</w>
near- field</w>
ne on
mor s</w>
modul ate</w>
mo g</w>
mis adjustment</w>
mi p</w>
mber some</w>
marquar dt</w>
macro scopic</w>
macro s</w>
local izes</w>
lo us</w>
lo -c
ll t</w>
linear- chain</w>
ligh tness</w>
le an
lat ent-
lap la</w>
lac ks</w>
l or
l b</w>
l ance</w>
kno ck</w>
kneser- ney</w>
k- best</w>
k end
ju dic
jo hn
iter ate</w>
inver sely</w>
invali d</w>
injec tion</w>
ingredi ents</w>
informa tiveness</w>
informa tion-based</w>
incenti ves</w>
in- the-
in dependencies</w>
in curr
incurr ing</w>
imp ort</w>
imp lying</w>
hyper text</w>
hu bs</w>
horiz ons</w>
hmm/ ann</w>
high- accuracy</w>
her ding</w>
har sh</w>
hamp ered</w>
h f</w>
gr öbner</w>
gol den</w>
gol d-
gold- standard</w>
glott alization</w>
glot tis</w>
gi vens</w>
gener a-tive</w>
gen ome</w>
gen ic</w>
frank- wolfe</w>
forwar dly</w>
fil ls</w>
f est</w>
ex terior</w>
evalu ator</w>
error -rate</w>
equi variant</w>
eec tive</w>
dow n-
dop am
domin ating</w>
disambigu ated</w>
disambigu a</w>
dim en-
digi tized</w>
di aling</w>
design ers</w>
def lation</w>
def ense</w>
def ects</w>
deep ly</w>
dec aying</w>
de stro
de st</w>
de focused</w>
de ath</w>
dat z</w>
d sps</w>
d ing-
d g
d al
cu mbersome</w>
cr isp</w>
covari- ance</w>
compu terized</w>
comprehensi ble</w>
combin er</w>
collu ders</w>
cock tail</w>
co variant</w>
clu e</w>
clo th
chec k
che aper</w>
cep -
cc s</w>
categor isation</w>
ca m</w>
block wise</w>
bir th</w>
bi static</w>
bag-of- features</w>
b arri
auto mobile</w>
attac king</w>
ate- and-
as m</w>
argu ably</w>
ance stor</w>
alter ation</w>
albu ms</w>
al amo
after wards</w>
ad l</w>
ad f</w>
acqui res</w>
a.k. a</w>
a is</w>
9 5.
8. 2</w>
4 0
30 k</w>
3- dimensional</w>
2- class</w>
2, 1-norm</w>
2 d/3d</w>
- specific</w>
- ro
ſ lter</w>
z f</w>
y mo
writ ers</w>
whe el</w>
wavele t-
w ants</w>
veri fies</w>
ut i</w>
univers ally</w>
under- resourced</w>
under graduate</w>
um -based</w>
ul a</w>
u k</w>
tracking-by- detection</w>
topo logically</w>
toler ate</w>
tempor aneous</w>
task- independent</w>
tab u</w>
tab lea
tablea u</w>
t edness</w>
t d
symbo l-
surround ings</w>
supple mentary</w>
supple ment</w>
sub classes</w>
stret ching</w>
straight forwardly</w>
stoch astically</w>
stereo vision</w>
stere o-
state- action</w>
standardiz ation</w>
st ati
ss d</w>
spatio -
sonor ant</w>
sle ep
sh im
sen se-
seme val-
se -based</w>
satellit es</w>
s z</w>
s lan
roo ting</w>
ro r
resol vers</w>
residu es</w>
rescal ing</w>
ren yi</w>
relevan cy</w>
regular iza-tion</w>
refer enced</w>
rect angle</w>
reas sign
re vising</w>
rat ers</w>
randomis ed</w>
r r</w>
quad rup
provi der</w>
protec ted</w>
pre mise</w>
post ed</w>
pol iteness</w>
poe try</w>
plic ative</w>
pixel -
pi lo
phrase -level</w>
perplex ities</w>
pas h
pash to</w>
particip ate</w>
parameter ize</w>
parabol ic</w>
palat al</w>
over lay</w>
over lap
over determined</w>
organ izations</w>
on g
non- blind</w>
no thing</w>
ni k</w>
neuro -
neon atal</w>
mum ford-
mumford- shah</w>
multiple- access</w>
multic ell</w>
multi- user</w>
multi frame</w>
movi el
motion- compensated</w>
mono- lingual</w>
modi ed</w>
mi ps</w>
meta- data</w>
member ships</w>
mat es</w>
manu ally-
manag eable</w>
lis tings</w>
lexic al-
la ir</w>
l cmv</w>
l ative</w>
key frames</w>
k m</w>
k b
jam mer</w>
iso morphism</w>
is- tics</w>
inser ting</w>
infin itesimal</w>
inc re</w>
implan ts</w>
imit ate</w>
illumin ated</w>
hou se
hor se</w>
homo morphic</w>
hear t
hart ley</w>
h is
gramma tically</w>
gra ding</w>
gr a</w>
glob alphone</w>
gen -
gazette ers</w>
galax y</w>
g one</w>
frau d</w>
fr in
fi gur
fi br
fibr il
ff ing</w>
f1- score</w>
exci ting</w>
ex ibility</w>
equival ents</w>
epit ome</w>
entro pic</w>
enterpr ise</w>
en berg</w>
electro glot
el u
ed ge-based</w>
dro ps</w>
dp m</w>
double- talk</w>
domin o</w>
dis am-
dimin ishing</w>
diagno se</w>
di rich</w>
depic ted</w>
depic t</w>
degener acy</w>
deep -
deci des</w>
de- formable</w>
de mp
d f
cross lingual</w>
confir ming</w>
confid ence-
con form</w>
con centric</w>
comput ation
com man
coinci des</w>
co x</w>
co smo
co ef</w>
chole sky</w>
chil d-
chec ked</w>
char ging</w>
c redu
c ma</w>
c enti
by product</w>
buil t-
broad -
bro datz</w>
bit streams</w>
bin ary-
biclu stering</w>
ber y</w>
beha ved</w>
beam- forming</w>
barri ers</w>
bar code</w>
b- spline</w>
b t
b m
avat ar</w>
auth entic
aurora 3</w>
astrono mical</w>
assemb lies</w>
as c
analog-to- digital</w>
am ino</w>
ali sts</w>
agg ed</w>
ag rad</w>
af fir
aes the
adver sely</w>
adi an</w>
addres see</w>
ad agrad</w>
a version</w>
8 5.
72 3.1</w>
198 9</w>
/ s</w>
-reduc tion</w>
-l ap
- ative</w>
zoom ing</w>
yp tian</w>
y mp
y ale</w>
wo o
wild life</w>
wide ly-used</w>
white board</w>
wh at
web- scale</w>
voc alization</w>
ver te
va stly</w>
ut e-
uni -
un -labeled</w>
u tions</w>
tw el
twel ve</w>
tumo ur</w>
tr au
tori ly</w>
tool kits</w>
to t
to logy</w>
tim ality</w>
text tiling</w>
tab le
t z</w>
t dnn</w>
t d-
syner gies</w>
syner g
syllab le-based</w>
super voxel</w>
summar iza-tion</w>
subtrac tive</w>
sub string</w>
sub stitu
stri de</w>
str eng
streng then</w>
st ag
sparsity- inducing</w>
source- filter</w>
so s</w>
so c</w>
sn s</w>
ske w
simpli fications</w>
similar ity-
sign i</w>
sign alling</w>
si ft
she et</w>
sha fer</w>
seme val</w>
sch ar
scatte rers</w>
sa les
sales man</w>
ro tation-
ro ad
rnn lms</w>
rnn lm</w>
resemb lance</w>
represent atives</w>
remain der</w>
reduc ed-rank</w>
rect angles</w>
real m</w>
re str
re produced</w>
quick est</w>
pyramid al</w>
produc tive</w>
predomin antly</w>
preci pit
pre clu
pr ism</w>
postul ate</w>
post- filtering</w>
pose lets</w>
por trait</w>
pertain ing</w>
pen e
ped ic</w>
path finding</w>
parameter isation</w>
par l</w>
par ado
pac k</w>
p ://
oscill ating</w>
orthogon alization</w>
organ isms</w>
ord er
open- loop</w>
ol ymp
ol ding</w>
obvi ously</w>
o gram</w>
o gnizer</w>
np- complete</w>
non- stationarity</w>
non- orthogonal</w>
non- linguistic</w>
non stationarity</w>
neural- network</w>
neg atively</w>
natural -language</w>
named- entity</w>
multi- input</w>
monolo gues</w>
min- max</w>
metropolis- hastings</w>
metr ically</w>
met aphor
me mo
me -based</w>
max- flow</w>
max i</w>
margin alization</w>
mamm alian</w>
log ist</w>
lo-c alization</w>
leven shtein</w>
laryn x</w>
lang ev
langev in</w>
landmark -based</w>
l fg</w>
kol mogoro
key board</w>
kend all</w>
k le
j ord
intox ication</w>
inter medi
inter lingual</w>
instanti ations</w>
incre ment</w>
in cur</w>
in ant</w>
imp ression</w>
imp res
immer sive</w>
ic z</w>
hu ber</w>
htt p://
holo graphic</w>
head- related</w>
he ading</w>
h md
gro wn</w>
grace fully</w>
gr and</w>
g lr</w>
fully- connected</w>
form u</w>
fi bers</w>
feed backs</w>
feature- space</w>
faul ty</w>
factor izing</w>
facilit ated</w>
fabric ated</w>
f un
f la
experim enting</w>
exerc ises</w>
ex ac
epile p
ener getic</w>
encoun ter</w>
encephalo graphy</w>
electro physiological</w>
eg yptian</w>
econ o
eco systems</w>
e t-
e ph
du plication</w>
dopam ine</w>
do ts</w>
dn n-hmm</w>
discar ded</w>
diagno sing</w>
dia mon
di schar
deter min</w>
dele ting</w>
defin iteness</w>
dead lines</w>
cul ture</w>
cs lu</w>
criti qu
cri tics</w>
corrup ting</w>
corrup t</w>
coordin ating</w>
cooper ate</w>
concer t</w>
con tention</w>
con notation</w>
con ics</w>
comment aries</w>
col linear</w>
co channel</w>
clu sions</w>
cl r</w>
ci ently</w>
cau tious</w>
c w</w>
c /
by zan
built- in</w>
borro wed</w>
bord a</w>
boo t</w>
bar s</w>
band -limited</w>
b essel</w>
b c
b ad
ay -
au s</w>
attribut e-
at us</w>
at eness</w>
asym p</w>
anticip ate</w>
ans wered</w>
ampli fiers</w>
am r-
affine- invariant</w>
af -
ad mixture</w>
actor- critic</w>
ac tion
abo x</w>
aa ec
6. 3</w>
5 9</w>
3g pp</w>
1 8.
/ her</w>
zero tree</w>
y ar
verb -
vector ization</w>
v á
v s-
v ine</w>
v ille</w>
v ability</w>
us h</w>
transform -based</w>
tr il
to m
tion- invariant</w>
time- of-
ti tious</w>
th- order</w>
ter m-
team mates</w>
tag matic</w>
t ball</w>
t ational</w>
synony mous</w>
synchron izing</w>
syn chro
sum- marization</w>
sum -of-
sub window</w>
sub topics</w>
sub manifold</w>
styl ization</w>
strip e</w>
stri king</w>
st at</w>
st air
spher ically</w>
spar sest</w>
sli de</w>
sleep iness</w>
skew ness</w>
sin k</w>
simplic ial</w>
signic ant</w>
side lobes</w>
shrin k</w>
search -
se where</w>
schizophren ia</w>
satisfac torily</w>
s now</w>
s mile</w>
s an
rt- 0
rou ge-
ro of</w>
ri de</w>
res ting</w>
reg ation</w>
ref lexi
recognis ers</w>
recip e</w>
reassign ment</w>
real istically</w>
re frac
ra z
r vm</w>
r k
rk hs</w>
qui z</w>
quanti fies</w>
quan ti</w>
pursu its</w>
pro o
priori ties</w>
precipit ation</w>
pre trained</w>
pre si
po wered</w>
plan etary</w>
physi call
pertin ent</w>
pd as</w>
pattern -
parallel izable</w>
overla id</w>
optim ization-based</w>
optim ise</w>
op ti</w>
op ho
ontolog y-based</w>
omni -
o mission</w>
nor b</w>
non sense</w>
navi gate</w>
n ul
n ar</w>
multiplex er</w>
multi- sensor</w>
multi- pitch</w>
multi grid</w>
moviel ens</w>
motiv ational</w>
morph o</w>
mon y
metr ies</w>
max- min</w>
mas ker</w>
map -based</w>
mani -
maneu vering</w>
macro -
m sa</w>
m n</w>
log it</w>
locality- sensitive</w>
loc ally-
lin k
lim bs</w>
li a</w>
lay er-
las s</w>
laplac ians</w>
l- climbing</w>
l il
l 1-
k id
jour n
j ac
iter ating</w>
is opho
ir regularities</w>
inter activity</w>
intensi vely</w>
indivi sible</w>
index ation</w>
in i</w>
in accuracies</w>
image/ video</w>
identi ſcation</w>
i o</w>
i ear
hyper sphere</w>
hy- per
hon ia</w>
ho mony
his /her</w>
hil l-climbing</w>
hi de</w>
hand ful</w>
h l
graph- theoretic</w>
graph- cut</w>
go -
gaussian ization</w>
g lu
g il
four i
fil tration</w>
fic titious</w>
fer ns</w>
feat uring</w>
factor ing</w>
facil ities</w>
f ant</w>
explo sive</w>
execut able</w>
ex cer
eth z</w>
er ent</w>
er ation</w>
entr ance</w>
ent ly-
en o
empha sized</w>
emo tionally</w>
em -based</w>
el sewhere</w>
eigen maps</w>
effici encies</w>
e man
e g</w>
e ects</w>
dysp honia</w>
do mized</w>
dissip ation</w>
discour se-
dis connected</w>
dis aggregation</w>
digit ally</w>
di- mensionality</w>
deriv ational</w>
dec ays</w>
de structive</w>
d ung</w>
d d
curr ents</w>
counter measures</w>
convolu -tional</w>
convo-l utional</w>
consoli dation</w>
conce aled</w>
con fron
con fo
commerci ally</w>
comm ute</w>
coa lesc
clust er-
classi ied</w>
cl ero
ci f</w>
chan -
ch itec
ch a
cf gs</w>
cere bel
ce t</w>
cancel ling</w>
cancel lers</w>
call home</w>
cal end
c used</w>
c ited</w>
boo s
block- sparse</w>
blan ket</w>
blan k</w>
bit- stream</w>
bifur cation</w>
bic y
bi simulation</w>
bi lexical</w>
bi asing</w>
bi as-
band- pass</w>
b um</w>
b d</w>
audi t</w>
au x</w>
as h</w>
artic -
ar y-based</w>
applic ation-
anno unc
an gry</w>
alco ho
alamo uti</w>
al tering</w>
al c</w>
al bum</w>
advertise ment</w>
addi tions</w>
a tho
4. 1</w>
20 ,000</w>
2. 9</w>
10 k</w>
1- dimensional</w>
1 ,000</w>
- accented</w>
y llab
y es</w>
x i
wsj 0</w>
win ner-
we arer</w>
w t</w>
w c</w>
vox el
vi l</w>
ven tral</w>
ve lar</w>
v qa</w>
v or
user- generated</w>
user- defined</w>
ur ls</w>
up -
unit- selection</w>
understand able</w>
un decidable</w>
ul us</w>
u v</w>
two- player</w>
tri angles</w>
trans actions</w>
tra des</w>
tour ism</w>
topo graphy</w>
to wers</w>
to logies</w>
time scales</w>
ti ne
three fold</w>
ter ror
taiw an</w>
t s-
t ment</w>
synony my</w>
syner gy</w>
syn sets</w>
sw iss</w>
sur passes</w>
sub- bands</w>
sub titles</w>
sub cellular</w>
su ffice</w>
stron g
ste tho
ste iner</w>
station arities</w>
stamp s</w>
st aged</w>
spec i</w>
spatio te
span ish
spac ecraft</w>
sp ic
so idal</w>
slo ven
slepi an</w>
slan ted</w>
simul ators</w>
simp l
shar per</w>
shap e
sensi tivities</w>
sen d</w>
sem ib
see ing</w>
se x</w>
se ams</w>
s lack</w>
s agittal</w>
ro m</w>
ri gh
resol ver</w>
reso lu
replic ated</w>
rel a-tional</w>
regu-l arization</w>
reflec tances</w>
ref lex</w>
re y</w>
re ranker</w>
re ed</w>
radi o-
ra ise</w>
quad tree</w>
quad ric</w>
qu eri
queri ed</w>
q ml</w>
pursu ed</w>
pul sed</w>
pub lishing</w>
ps p</w>
pros thetic</w>
prob log</w>
pre- dictive</w>
post synaptic</w>
pol y-
point-to- point</w>
po ore
poore r</w>
plo ts</w>
photo realistic</w>
pho- netic</w>
penal ize</w>
ped al</w>
parti al-
pari etal</w>
parametr ically</w>
pan cies</w>
pac- bayesian</w>
p edi
p b</w>
p b
p .
over load</w>
ove restim
ou d</w>
organ ic</w>
op aque</w>
on board</w>
occu pied</w>
ob dd</w>
o stbc</w>
nor- malization</w>
non- binary</w>
noise- corrupted</w>
no min
multic asting</w>
multi- person</w>
multi- attribute</w>
multi wavelets</w>
multi gram</w>
mul titude</w>
muc -
mp 3</w>
moun tain</w>
monolo gue</w>
mon th</w>
mode -
mo vable</w>
mo tor
mis matching</w>
mis cues</w>
minib atch</w>
mimic king</w>
mi ra</w>
mar ri
mar ath
manife sted</w>
mani fest</w>
manag ed</w>
man ned</w>
ma t</w>
m mie</w>
loqu ial</w>
lo vá
level- set</w>
le v</w>
le ms</w>
l v</w>
l ter
kid ney</w>
ki lo
kan j
jump s</w>
jap an</w>
it ors</w>
is a-tion</w>
iono spheric</w>
interrup tion</w>
interlocut ors</w>
interlocut or</w>
integr ator</w>
instan ce-
inflec tion</w>
in vari
in ts</w>
in tri
in ations</w>
illumin ants</w>
iear ning</w>
human -like</w>
hosp ital</w>
home o
heur is-tics</w>
he mo
he is
he ard</w>
hard wa
han g</w>
ground truth</w>
graph i</w>
g ressive</w>
g eries</w>
func tioning</w>
frequ ency-based</w>
fra med</w>
formal izing</w>
flick r
fl av
fiel d-
fi g</w>
faç ade</w>
fav ors</w>
fac -
f 0-
esti- mator</w>
epilep tic</w>
eph ra
encompas s</w>
en- tropy</w>
en et</w>
emer ges</w>
ego- motion</w>
e ps</w>
duc tive</w>
dor cet</w>
distribu ting</w>
distr actors</w>
diffeo morphic</w>
diff r
diamon d</w>
dia meter</w>
de trim
de ter-
dc t-based</w>
datapo ints</w>
dat ap
dama ged</w>
d nn
cut set</w>
cu bes</w>
crowd- sourcing</w>
credu lous</w>
coupl ings</w>
correc ts</w>
contrac tive</w>
consist ed</w>
consci ous</w>
condition als</w>
conce i
con dorcet</w>
composi ting</w>
compo und
comple mented</w>
colu mb
colo ured</w>
collec ts</w>
col loquial</w>
clust er-based</w>
clo sures</w>
cep- stral</w>
cen ter
cele br
can tly</w>
c av
c ad
bus y</w>
bud gets</w>
bre ath</w>
bis ection</w>
between- class</w>
back up</w>
back jumping</w>
b di</w>
b ch</w>
azimu th
audio- only</w>
attrac ting</w>
at ric</w>
at er</w>
assemb ling</w>
as set</w>
as s</w>
ar a</w>
appe al</w>
an es
am bertian</w>
al together</w>
al oud</w>
air e</w>
ag i
aer o</w>
advoc ated</w>
acknowled ged</w>
absor ption</w>
aber ration</w>
9 7.
8- point</w>
7 7.
6. 4</w>
5 00
4. 4</w>
199 1</w>
198 8</w>
1 28</w>
0- norm</w>
-l ag</w>
µ -
zero- sum</w>
y z
y ang</w>
x il
work space</w>
wor n</w>
wide- coverage</w>
well- defined</w>
w ings</w>
visual izations</w>
visual isation</w>
vir al</w>
viol in</w>
viol ence</w>
ver se</w>
vector- space</w>
vari- ational</w>
valu ations</w>
utterance -level</w>
up stream</w>
univer se</w>
uni fication-based</w>
under sampling</w>
under pin
un lexicalized</w>
un coded</w>
um ts</w>
ultra- wideband</w>
uc sd</w>
uc f</w>
tz ig</w>
tw in</w>
transi stor</w>
trans -
tra versal</w>
tra p</w>
to pol
tion- free</w>
ti ered</w>
tent ative</w>
tele phone-based</w>
tari ffs</w>
tak e-
tail s</w>
t m
t ful</w>
t fi
t f-
t ative</w>
synchron ize</w>
synchron isation</w>
syn tagmatic</w>
switch boar
sv t</w>
super directive</w>
sup posed</w>
substit ute</w>
sub sequences</w>
sub networks</w>
strong ly-
strategy proof</w>
st ale</w>
spec ularities</w>
son ic</w>
so mato
so l</w>
skele ton
ske wing</w>
sig ma</w>
sho ul
seri ously</w>
sen -
semis u
s on-
s am
s 5</w>
roo t-
rich ly</w>
respec ting</w>
resour ce
replic ator</w>
re x
re used</w>
re tention</w>
re set</w>
rcc -
rail way</w>
radi x</w>
rac ing</w>
r ul
qu e
qu aero</w>
q rd</w>
q psk</w>
push ing</w>
protec ting</w>
professi on
prin ts</w>
pre filtering</w>
polynomi ally</w>
poly glot</w>
point -wise</w>
pin hole</w>
person nel</w>
peri meter</w>
per man
parameter- free</w>
pan el</w>
packe t-
pac ked</w>
p per</w>
p dm</w>
overlap -
ous ness</w>
orthon or
optim ising</w>
ol factory</w>
of d
o mes</w>
non para</w>
net fli
netfli x</w>
neighbo uring</w>
navi g
n ativeness</w>
n .</w>
multi- microphone</w>
multi wavelet</w>
mu d</w>
mp i</w>
moun t</w>
mon ary</w>
modul atory</w>
mo cha</w>
minim ise</w>
mim l</w>
metaph ors</w>
meta -level</w>
mer stein</w>
me t-ric</w>
maxim ising</w>
max q</w>
mat a</w>
mark et
many-to- many</w>
m ve</w>
m mo
log it
liter acy</w>
le mp
l dr</w>
l b
k ins</w>
jord an</w>
j it
it ely</w>
istic -
ir y</w>
ir regularly</w>
intri guing</w>
interlac ing</w>
inter facing</w>
instanti ate</w>
instan ce
influ encing</w>
infer ential</w>
in sur
in j
in form
impo sition</w>
immun e</w>
im men
ili ation</w>
id enti</w>
ic ular</w>
i x</w>
i st
hybri diz
hind sight</w>
help fulness</w>
harmon y</w>
happ iness</w>
hab its</w>
ha m</w>
h da</w>
gre edi
gras ping</w>
goal- directed</w>
go p</w>
gauss- newton</w>
gau ge</w>
gangli on</w>
g ho
full- duplex</w>
fr gc</w>
fp gas</w>
forwar ding</w>
form at
fluo ro
fic ation-
f 3</w>
exemp l
exclu de</w>
excep tion</w>
exag ger
ex changing</w>
ew icz</w>
evo lutions</w>
ev asion</w>
euro parl</w>
estima -tor</w>
es- timator</w>
er m</w>
er /
epi poles</w>
entr ench
ent ail</w>
end an
endan gered</w>
ence /
ed its</w>
ed ged</w>
e- commerce</w>
e v</w>
domin ate</w>
docu mented</w>
diversi fication</w>
dir ty</w>
di rac</w>
depar ture</w>
deno tes</w>
demonstr ator</w>
deliber ate</w>
decision- tree</w>
de modulator</w>
de celer
dan tzig</w>
cru de</w>
critiqu ing</w>
correspond ingly</w>
conver sely</w>
contradic tory</w>
continu ing</w>
cont est</w>
consum ed</w>
conclu des</w>
concep t
con ci
comprehensi bility</w>
combin ational</w>
collap se</w>
coar sest</w>
co s</w>
clear ing</w>
ci ans</w>
cen s
categor iza</w>
categ o</w>
can al</w>
can adian</w>
call -
bur gh</w>
brow se</w>
broad- coverage</w>
bri bery</w>
br ute-
bi polar</w>
beha ves</w>
bear ings</w>
beam- search</w>
be ar</w>
bar ge</w>
b ending</w>
b all
axio ma
aw a</w>
atten tive</w>
asympto tics</w>
appar ently</w>
app reci
anatom ically</w>
anaphor icity</w>
ame li
altern ations</w>
altern ately</w>
alter ations</w>
ag ent-
ado lesc
ac u
ac id</w>
a is
72 2</w>
6 9.
5 0-
4- gram</w>
4 ,
3- sat</w>
2 x</w>
2 /
1 8
1 1
0 s</w>
. com</w>
-redu nd
˜ o</w>
z e
y ers</w>
xil in
xilin x</w>
x rt</w>
wr ink
word length</w>
wor thy</w>
window -based</w>
who m</w>
wal k
visi ted</w>
vise me</w>
vic inity</w>
v ar</w>
user- specified</w>
user- item</w>
us ages</w>
up coming</w>
under specification</w>
under sampled</w>
under lies</w>
un matched</w>
un aware</w>
ular -
uc f
typ icality</w>
tu bular</w>
tre mor</w>
transl iterated</w>
tr in
tr apped</w>
to me
time-of- flight</w>
ti ers</w>
ti be
th ong</w>
th ink</w>
tex ton</w>
termino logies</w>
ter ial</w>
tensor -
ten s
tens orial</w>
temporal- difference</w>
te gr
task- dependent</w>
tas k-based</w>
tab let</w>
switchboar d-
sv q</w>
sur pass</w>
sup pose</w>
substitu ting</w>
sub group</w>
su it</w>
structur ed-
str ip</w>
stand point</w>
st t</w>
ss -
spic u
speech reading</w>
sp read-
sp ine</w>
solo mon</w>
smar t-
small- scale</w>
sloven ian</w>
sk ull</w>
single- trial</w>
signi ſ
signal-to- interference-
si tional</w>
si so</w>
sho o
shape-from- shading</w>
semisu pervised</w>
seman tic-
seiz ures</w>
se eding</w>
sch ur</w>
scatte rer</w>
sa ved</w>
s z
s intel</w>
s am-
ru le-
ro is</w>
rhyth ms</w>
resi dential</w>
resemb ling</w>
res core</w>
recti linear</w>
re structuring</w>
re starts</w>
re per
re orderings</w>
re activity</w>
radi ally</w>
r p
r and</w>
quad ri
pt b</w>
psycho acoustically</w>
pseudo likelihood</w>
pre mises</w>
posterior gram</w>
posi tioned</w>
por al</w>
poly time</w>
plu g-
plex ing</w>
pitch- synchronous</w>
phone book</w>
per missible</w>
part s-based</w>
part ner</w>
parameter ised</w>
paralle l-
pan -
pain t</w>
p o</w>
over- the-
opac ity</w>
om a</w>
object- oriented</w>
o ur
o motor</w>
norm ed</w>
non-l ambertian</w>
non- coherent</w>
no vice</w>
no tice</w>
net work-
n los</w>
n ak
multi- step</w>
multi- body</w>
multi core</w>
multi condition</w>
monit ors</w>
mo t</w>
mm l</w>
mist ak
mis specification</w>
minim ality</w>
mini- batch</w>
micro wave</w>
medi um-
med o
mb ank</w>
maxim iza</w>
map lr</w>
ma e</w>
m t-
m st</w>
m ance</w>
lu ce</w>
low- delay</w>
lová sz</w>
loc ation-
lingu ists</w>
likelihoo d-based</w>
lik e
licen sed</w>
lic ed</w>
li -
lexico- syntactic</w>
laplac e-
l mmse</w>
k ymo
japane se-english</w>
itu de-
it g</w>
ish ment</w>
ish es</w>
intra- speaker</w>
intra- frame</w>
inter- channel</w>
inter symbol</w>
inter cep
inste m</w>
input /
initial izations</w>
incre ment
inci dence</w>
in ner-
idi oms</w>
id ate</w>
ic ar
hol der</w>
ho tel</w>
ho t
heis enberg</w>
harmon ically</w>
harmon ic
han doff</w>
h k
h essi
h edge</w>
gu i</w>
gu er
greedi ly</w>
gr e</w>
gr ab
general izable</w>
general ise</w>
gec tome
g td</w>
g gp</w>
g f</w>
g bank</w>
g b
ful fill</w>
fres h</w>
frag ile</w>
forec ast</w>
for th</w>
fine- tuning</w>
fici encies</w>
fi ting</w>
ff led</w>
fer tility</w>
fe et</w>
faul t-
factor- ization</w>
factor iza-tion</w>
face book</w>
f sa</w>
f lag</w>
f bs</w>
eye- gaze</w>
extensi bility</w>
explo rer</w>
exec utions</w>
ex po
es sor</w>
eras ures</w>
equal isation</w>
ep i</w>
en z
employ ment</w>
em itted</w>
electromyo graphy</w>
ele ven</w>
ele mental</w>
eec tiveness</w>
ed ings</w>
e- mail</w>
e mails</w>
drop ped</w>
dp f</w>
down ward</w>
dou bl
discre pancies</w>
disam- biguation</w>
dirich -
dirich- let</w>
direc tionality</w>
dimensi on-
diier ences</w>
detrim ental</w>
destin ations</w>
depic ting</w>
deno te</w>
deen ition</w>
de- coder</w>
de reverber
de lexicalized</w>
de ficiencies</w>
de cent</w>
dau bec
d é
d ust</w>
d nn-based</w>
d cnn</w>
d .</w>
crowd- sourced</w>
cross- channel</w>
cross -layer</w>
cros sed</w>
cred ibility</w>
cq s</w>
coun try</w>
cor ti
cooper atively</w>
convex -
conver sions</w>
continu ally</w>
conju g
configur ing</w>
conf usable</w>
conduc ts</w>
conduc tance</w>
con form
complex -
coinci dence</w>
code- switching</w>
co sparse</w>
co re-
clip ped</w>
clin ically</w>
click through</w>
classi fication-based</w>
cl arity</w>
cir c
cifar- 100</w>
ci ency</w>
chrono logical</w>
cho red</w>
character ised</w>
character ise</w>
capit alization</w>
cap t
c ity
bul garian</w>
bu tional</w>
brute- force</w>
bra instem</w>
br l</w>
bo ld</w>
ble ed</w>
bl urs</w>
bi ped</w>
bi ds</w>
be -
bay es
bas ke
bas al</w>
ballo on</w>
b orders</w>
asi ewicz</w>
asc ending</w>
appropri ateness</w>
appli ance</w>
appar atus</w>
ap p</w>
ap ers</w>
anticip ated</w>
an isotropy</w>
an chored</w>
amp le</w>
air s</w>
ail s</w>
advertise ments</w>
ad der</w>
a ibo</w>
9 -
6 4
5. 9</w>
3 00
3 0-
0. 9
-ran dom</w>
-lat ency</w>
- ori</w>
+ 1</w>
z hang</w>
x x</w>
wrink les</w>
wiz ar
wik i</w>
weigh ted-
wat ching</w>
wa ste</w>
w est</w>
visi bilities</w>
vesti bular</w>
ventric ular</w>
vali dates</w>
v dsl</w>
v alle
ut er</w>
us s</w>
ur du</w>
uni ied</w>
unde restim
un tagged</w>
un synchronized</w>
un manned</w>
un covered</w>
un conditional</w>
un affected</w>
typ e-based</w>
trivi ally</w>
transp ort
trans coder</w>
trajec -
train ing-
tiz ers</w>
time- and</w>
ti sed</w>
ti les</w>
ti ed-
thumb n
there of</w>
th ic</w>
tail oring</w>
t ure
t le
t 2</w>
subjec ted</w>
sub array</w>
str apping</w>
str ands</w>
ste n</w>
ste mm
state -based</w>
spo ke</w>
speech dat
spectro graphic</w>
sp licing</w>
sor ts</w>
so bo
si x
shim mer</w>
sche matic</w>
sc s</w>
sand hi</w>
sacrific e</w>
s y</w>
s lit</w>
s fa</w>
s clero
s age</w>
rt0 6</w>
rob usti
ro man</w>
respon sive</w>
resi des</w>
research ed</w>
res u
repeat able</w>
recover able</w>
rec al
read out</w>
read ed</w>
re- flectance</w>
re writings</w>
re weighting</w>
re traction</w>
re arrangement</w>
ran ts</w>
ran ge-
r te</w>
r l
r ings</w>
r ant</w>
quo ted</w>
quo tations</w>
questionna ire</w>
q r
q p
proce edings</w>
pro of-
priori tization</w>
priori tiz
pre conditioned</w>
pre condition</w>
pp m</w>
posi tive-
port als</w>
polyg on</w>
plen ary</w>
pic ked</w>
persu asive</w>
percep t</w>
perce p</w>
pe gas
parallel ize</w>
par king</w>
p st</w>
p ler</w>
over- smoothing</w>
over fit</w>
orth ant</w>
op t</w>
oo er</w>
one-to- many</w>
on ics</w>
on ian</w>
non- verbal</w>
neu mann</w>
necessit ates</w>
near- end</w>
ne ment</w>
ne c</w>
nam ing</w>
n esting</w>
n av
mul-ti modal</w>
morpho syntactic</w>
morpho -
mono li
monoli thic</w>
mo ved</w>
ml -based</w>
mis sive</w>
mis pronunciations</w>
mis classified</w>
min t</w>
micro scope</w>
med ication</w>
maxim ise</w>
marath i</w>
mal ach</w>
m ate</w>
low- quality</w>
low -latency</w>
look- up</w>
logit boost</w>
log istics</w>
lin ger</w>
li b</w>
less er</w>
less -
l age</w>
kl- divergence</w>
kat ak
k ong</w>
k o</w>
k bp</w>
j a</w>
ir st</w>
integr ate-and-
instruc tor</w>
instance -level</w>
indon esian</w>
inde red</w>
in- vocabulary</w>
in- ter
impul ses</w>
impo stors</w>
imple ment
imper ative</w>
imp reci
ij ing</w>
i. e</w>
i tives</w>
i fft</w>
hyper tree</w>
hol ding</w>
heigh ts</w>
har ness</w>
hab it
h timit</w>
h indered</w>
h c</w>
h at</w>
graph- ical</w>
gran ular</w>
gen- erative</w>
gen ia</w>
gangli a</w>
galax ies</w>
g iza</w>
g el
fund us</w>
fri end</w>
foreground /background</w>
fon t</w>
fl edged</w>
fibril lation</w>
face- to-
face ted</w>
fabric ation</w>
f1- measure</w>
f ed
f an
explan ation-based</w>
exist ent</w>
ex tra-
ev d</w>
envi sion
ent ered</w>
endo wed</w>
encour aged</w>
en f</w>
en e</w>
empha sizing</w>
eigen faces</w>
[...]
